fefdf2fbfa070b0807fe0afefef50cf2
0307020cfcfefc0af3f2050e04f10a09
f2fef30806040b0d08f4fe0efef7fa05
f3fe080cf206f101f1040dfcf3feff04
0a0d060ef0f9fcfff3ff04f10a0af7f2
07090dfbf70905f6090ffb02fd03fb0e
04f600060af9f602f9f800f9f406fe03
0d020efef90a01f4fef804fdf5f400f1
0a020a0d0b0e0700fb09f5f7f80809f3
f206f7ff0ffaf408fef6fcf3fc0c06fe
00f003fb07f3f707fcfbf9f2f303f50c
00fc0bfe0ff8fdfdf0f1f6040901fafe
f20b030b010cfbf9f30b080604000dfa
00f8f7f90303f90a05f40e050d08f0fc
ff0cfd080605f4040ef8fbf1f60df7ff
fcf1fd04090204f8f1fbf005f0f8f302
0bf30100f6040f0a0bf2faf00bfd0305
ff05f1f00e0709f90ffa0efe0105f1fc
f4f401f50ef10ef0fe0bfcf5f70c050c
0b08f0faf80805fd01f5f7fef6f50cfc
0efefafb01f60e03050204fd06fcfdf2
09fe0805fefeff08f30cfa0ff60bfffa
fd0ef8ff010a020e08f0f603fa0a080e
040af2f8f0f9f6f3f3f00d000d09f50b
0df802f3f1f4090108030500f800f001
fa0a050ff5fa0bf209fc03f8f705f0f9
0101f8f008f707f9f1f2060b0c0ff6f3
02f90400080801f40a08f809f6090fff
03fb0d09010f030304f1faf5fdf1f00a
080d0002f0f301f0f40301fd03f6f10d
fd080e0cfafcf1fc0e000f0702080cff
f507fdfd08fef5030a03f0f2f705ff0a
f3fdf107f4f3fd04f008f30ffef10c01
f2f7fcf1f9f9f7fefcf00003fdf902f4
050dfffefa08f403ff0b0700f6f60904
f6faf8080ff5f2000afa0dfc0dfafc0f
fbfef70cf70000f0f102f1f502f8fc08
f2fc060b04f601f706f40f03f805f3f8
090904f10afb0bf2fd030efef4f90f00
05f509f1010bfdf10ef4fcf709f9f7f3
0c00f8f8fcf2f000f3f30907fa06f705
08f40ef6f7f2f403fefc010b07f3fc00
0f07fcfbff0b07fffa05f103f306ff00
fd090df10a01f5f90508070afbf7f203
f200f7f30f01f80b0e05f5f7f7fafd07
03f40f06f90df10ef9f0f0f8f8040806
09f9f6f0fe0dfa0909fc0cf8090a0cf4
f809f7f0faf6fc0af7f60ff80e01f204
0f010ff903fefb03090c090cff02f00f
f1f30b0a0c0efdfe0306fc0ef7f1fc09
fdf2f00a0c07f0fa0df2f10109f90cfd
000bfcfd00f700f30bf4f1f103f70df1
00fbf40e01f8f3f6f60f02080204f004
0c00f306080a000705f0f5f0f6f9f30a
0b0bf80af1f2fb0609f0f7090efc05f8
0002f4f0f90f080802000dfe0c07f5f8
06f5f8090201010ef60df1f5f5f6f5f9
020b03fb01fb090800fdf40ef5f2f0f0
f7010cf2f107f8fc02030bf007f004f7
02fef80c0d0cfef70405f90e08f4fc01
f1f0f402fb08ff09f3f7f7060aff05fd
f4f2fa080bf0fb0200fa02fc0308fc03
0cf1f80c03f606fff30c0ff409f100f6
050a01f60209fafd010307fcfdfdfff5
07fbfbfcf8fb0100f9f10a040afc050d
ff0d0ff70ef0090ffffbf6fff106fc0b
f807fb090cf1fdff02ff0f04040bf90c
09fafdf907f4fe06f2fa0bf9f5010e01
ff080ff9f002f0f00ff30ef5070703f3
0d0ff8fb02fd09f60ef8fcfff501f106
030a0bff0306f1fefff20403050704f8
06050100f5f8f7fe08fcf809010bf100
f50a0a02f9f3fbf70bfdf00c0f07f70e
f6fdfaf30df3f6060bfb03fd06070107
f2faf00801f2fcfdf8f7fcf008090ef2
fcf004f9090cf5f8fd0df00a0403f00c
0200020100080df9050fff0c0506fd03
f302f3f5010ff00dfef1040b070ff9fa
0cf103fd09f1f5ff010af004fb0bf5f4
0bf9f8f90b07fa00fa0cf00dfc0ef002
f3f703f809030507f8f20a0d04f40f0a
f3f20205fbf302f5f6080e0ef4fb0805
00f50c0cf2f808fefe08fffa0603f508
0f0704f0fcf9fdf508f7000b0003fc0b
0101000f000304010b080a0a01f402f8
0b0909fd0509f0f50e0405fd0bfa0407
0705f7fb04ff0cfc080308f3faf8f6f2
f2f006fdfd09f6fc0d0209f2fb05fc00
05050cf0f9f0f0f10df4f107f5f40cf0
07060dfef80600ff07f6050305f80508
f60ffbfc05f10709f9f2fb0d03fa0c07
f9f003f007fa090105050e05fc06020e
f0f3faf20c0f04fc06f60e05fef9f6ff
0d0a0002f6fbfefe02fe040dfcfd0bf5
0bf1fcf2080df1f2f4faf70d09fdf2f4
010ff7fafe00fbf90e0a040dfff60305
060406fc00fa09fff203f203fefafb08
f5fffbf7ff070504f2f9020bfb0cf404
f0fd09fc04f903fc0cfb04f8f5f101fc
0b0a08f2fc0f01f601f40ef9f5fe0302
050ef5f6fcf2f5f001faf2f10101000c
f8fc080cfbf9f2fcfe0b00f0f6fc06f0
f6fe0809f2f602f5010e0a0604f2f6f7
fffcf5080400f8040af2f10ef605f5fb
0ff505fcf9f402050b02fb03090d0806
f60e070afdf20bf5f706050505f604f6
0b0207fcf7f6080cfaf909f9f602fef9
040b0d0d0fff0efcfb01f702f503f3fd
0ef302f702ff0008f9f6f609fe0c0806
0d0f0e0c0e00f601f409f901f7030df9
f7f8fef701fc040a04f90bf205f4f8f7
0701f9fe03040403f802f5070ef7fa0a
fb0503030909f00c010cf40207f7f008
ff02050ff3f8fdff05fcf2f601fafa0c
f90a05fc02f5f306fbf2f20804f30bf3
040901fcf103fbfb05f9ff0c06fbf605
f2fd02faf1f00b0507fa09070d090e0e
0404fbff0ffe08f400f909f1f5f50304
fcf8f70101f406f107000cfefdfcf3f7
f60707fb0efa07fef10206fe04010f03
f2fefd03f1f8f4fc0d0ef30df50fff02
f704fdfe0604fd08050700090d0ef902
fdf40c0107fb040301fe04f1000a01f9
0afbf6ff080900ff02030f0c00f8fc0c
0ef6fa030104f000faf601f60ffcf60d
0cfaf1f2f605fff30ff2f20afff0f0ff
0cf3f30e0007fb010bf10704050ef5f2
fdf40b00f7050efc08fb040cf6f40af5
09f200f3f60107f30ef3f1f901f1020e
060cf90afc0afff6020905f1090f04f9
09fd0a0d05070e040afc0efffef6040d
04010a0202000efd0af6f9010af803fe
f6fe0cf6fbf90ffc030e03fd0b080806
f8f1fe0f0ef503fb080df400fdf1f5fb
f70d06020ff70dfaf007f4fbf708f8f7
030b05fbf6fe03090df2f3f8f40f08f6
f4f109fc0308fa0af9f402f7faf80c07
0b02f7050df6fb04fafdfaf5f002f4f6
fff6f4fafefb0ff6f8fe0b02f3fa0e00
0105020ffa0f040f09f5f5f9f505fd0e
f3f5010a0d030df400f3fb04f3f2fdfc
06f800f4fc0c07f7ff0df70d0d0202f7
0c07f8f6f5fdfaff05ff0b0a0df5080e
03fff300fa06f0fe08f2fc060105fff5
f3060d0001020ff007f9fff204f70df7
fef20903fdf4fef506fb030c0609f8f1
0205fef409fdfa04080a0901f3fa01f5
f405fb060b060cfff809f8f20dfefcf5
f6f30807f8f200f10902fff801f4f5f9
f6f90e09f0030cf8fbf1f5f10702f102
f7f4ff0ff507f6fef9fff8f206f7fa0f
0c01f404fa02040d0e0003fef1f1090f
f90dfffd0c0ff5f803ff06fdff07fa08
0ff6fdf4f4f70efa09090ef6fe06000e
f005fbfdff0d04fa090f0400f2f9f5f1
f7fff303f608fef1f9fcf2050d0b0af9
0dfa01000ffbfa080f07f2f90700f707
0306f90701f00e0ef70b050f01f402f4
0a0900faf3f8fb00050bf5080308f1f8
07f308f1000604070ff1f70ffb050df1
0d030a0df605fb0603f80ef0f8f6fc09
fdf7f6f0fbf2f8f8f50af3fc04fb04fe
0d0bfd00f3f90cf009f709fef3fd0ef4
fe0f000b010bf40f05fff80e0ff60f0a
faf5f5f7fef501040e0a0b070c01f1f2
080cf0020df4f8f506060af10c0f0fff
f407fe0700f90c00f5fdf309f3f80efe
f5fafc070e03f1050cff0607f1fb0f0e
fff90301fc00f1f2f1f803fef0f304fa
fafefefbfdf0f401fcf5f8f30dfcf109
f50806fa0c0b0806fa090df3f803f909
f505ff060c0ffa0a0d0801fdfc0a0e09
00fcfd010108f9f7f50af70af20df103
0309f9fa0706f7fd090bf60df5f90206
0a0701f2f1f301060a0c02fa08fef50c
0705060cfaf6f4f20903f0fcf207f8f6
fcfafcf7f7030ffc0b02ff0ffdfbf80d
0a0907fffaf3f5fff7fb0204fefe03f6
0af3040af00bf90d080a0dfc0b04f0fd
f2f1f101090e0cfcf006f70703f4f5f8
fb070bf80b01f1ff030a0200f20a0cf9
faf3fd080a03f50efd0df1ff02ff080e
03f6060702fffc00f2f00cf6020af7f7
000a0d03fe0a0a080f0608fdf6f40df4
fe0df5fcfefd0502f702f3f6f1f1fa0b
fef8fdf6f8090f05020d04fc0af80005
f60203f7f7fcf8f0f0030507f7fdfffc
f10507fd0ef20cf1f809fb05fa05f405
0e08f4f40a0bf7050ffcf9f7ff020dfe
01040cfbf30407fbf5f007f2f6f3010b
f7f6f0f8f20c08fe0e01f6f8f60701f7
ff0af401f3f9f902f70802f1f5f2fc05
fcfa0408fcf80dfc04fa00fbf50af607
0e0efb02f006fa000104f6fafcfd0efb
f50efcf000f6f5f6fbf4fdfe0208f1f2
fd0e02f901fa0b0ff60004f1080506f7
0cf20203f10cf7fdff09020f0703f70b
fa0bf9fb02fef202fef60d0f00f404f4
f505f10a0eff05faf0f7fdf4fafd050d
f4f500f9ff040d070002f30207f402ff
f502060602f409f2fd0405fdfb01fa07
09ff00fcf6fd0af9f5faf6f5f6ffff0c
08f1f8040b0f04f3f10505f5f6080605
0afefdf30ff7f600fb05fefbf1ff0d01
0af1f60ff9f10702f60506090400020e
fbf4fbf4f2f3f700fb0f0b0ef8f80d06
fc01fef00005f50808f4f10a0cf80cfd
f50f030a09f505fe0004f60906fcf605
f3f1fcfcff04f5fafbf6f8f3080d0707
0709f3020efe0b0c00f1f8ff030d00f6
f2fbf1f2f6faf7f809f8020808f3f602
0f0dfcf308f6fa0a02f108f8f8070ef9
fafbf40609f7f302f50205f8f3fbf80b
0efa03f803f5f90bf9f9070eff0508f3
f20afcf10cf9f4f701f5fdf901f9f40e
f1fa08fdf3faf0fdf0faf4f20df606f1
02010202fbff080e01f8f50ef40e00f7
fa00fdf8f507f2f3000608f80ef4fcf4
07030bfaf5f6fdfa0f09fd0af607070e
020902080701fef506030bfc01f0fff7
f2fffaf3fa080cf9f60df7f103f705fc
f9f1f0f4fc0c08f7fefbf1fbfdfaf304
f60200fd0402f50df0fdf80df00afbfc
f8fa0c0df3fd0c04fef9f50ff7f1f8fb
fbff0a0008fcf009fc000ffefcf30404
f30009f808f70d04f9f0f8f2f205fe02
0a02f30f0ef1f70c0f0cff0c070cf4fa
09f6f1080a0afc00010f0efa0a000d01
050d010707f40ef1f503fc0ef40000f4
08fe0d0a0e0401f60501fd010f0c0f05
f303020cfffa09fefd0cf60305f501fd
06f2fa00fcf30e0c02f907f2f1f10103
05030e0600f7f7fb01fbf7f60f00f801
f3f5f7fbf90ff0f6fa000300f309fefe
f6050ef3fffbfffa0005020f03f9080e
0708fcfbf9fefe00f9ff070a06f7f80a
f306f9f4f206f60ef2080109f70d0ef3
fff108f50608f5f2f6fafc03fc00f400
0df90cfc09080e03fff7f7fcf6f5f5fc
f4fc0afe05fef8f10701faf409fffb00
f20cfef80bf704ff08f70607f502fb0b
0df5f6fb040a0df5f8fbf10b05040407
fcf80bf7f504020c090efd0a00fc0b01
01f20f09f80ffff3f20b0b06040bfb06
f2fbfbf90ffcfaf3f209faf3020406f5
0cf9f7080a070203fafef2fcfffd0604
fb09f30c070af5f407fe07fbf1fa07f8
050dfcf5f1f803010d06f8fc03f30108
f6f9f605fcfaf30002fc08fef7fcfff5
07f1f4fcfc09f9050ef4f003f90ef0f4
070a0807fd030a0a0100000d03f8fb08
f40ef5f4fb0202fc000ffe04020c00fa
04f505f607070b0a0303f70207fdf7fe
f1090903f500fbfe030f09010ff7ff01
0a03fa000b0dfcf101020701fc0c09f2
fdf30c0ff5fbf0fc030f0bf40402f004
fdf20df80f06f70a0500f50701f30003
f6f8fd0005fff005f7fbfcfbf0fa0500
faf207fe00f70cf2fdf801020efdf5f2
00fcf7fc0c0df5f7fb080105f10103f6
070007f9050c0bfe0ffe0e070cf4f8f3
f8080f08010a020a09f0ff090df40a01
0cfefdf30efa07f50ffafdfe04f9f4f3
fef0f30df101f4faf30f0c0f000008f1
f30b01f90d07080809050100fd0207f1
fa0bf1f6030306f00cf403f8fe03f309
f5f5f6f10e0f0907fe0cf3f20b0ff70a
f8080bfbf90cf2f6040d02fef7fa0ef8
08fa06f5fb09ff0508fef3f101f60af5
0bf9f0f307fb070202f60ff2fb060604
00f305f7f402fdf3f70e0509000bf70c
0afff70b0df9fff805070afbfd0f0ef9
07f9fbf0f40d05ff0af609060b080407
04fff5f9fe06f9fffdf1fbfbf1fbff04
080bfc0cf30001f4fcf2fa01fbfbfdff
f3f20e030e0efef6f8f7020df1030c08
0cff05fe0b0d0bf7f2f2fc0d06f90bfc
0df504f9fcfb03f601f30af406f603f3
09fc07f4fa07fffa0807010ffef90bff
0007fdf5fa0c0c050b0ef506f9f00df4
020007000206f2070cf803fcfaf0f702
faf102fcfef6f105fdfaf2f706f40200
0204f4fa05f00e01f4fcfc010d0ef5fb
0df6f002fbf0080f04f409fcfb06faf2
f00302feff0ef7f9faf606fdf7fb0af5
fef80205fef3fb08f4f009fc0b07090e
fbf9fff302fcf1060cf5f7fe060e0c00
01fb0eff0f07060b0703f60807f2f1fd
f101f9fd0303fffd0700f901fcf60dfe
0b040bfffbf104f705f9f201040a030d
0ef203fe0bf9f7f7f2f7fdf605f1fcf3
05f904f506020af303060cfd090df90f
fc0cfa04f905030bf2fd0bf304fcf007
f7f704f50df402080ef20f000efdf701
08f7f90d00fef2020a0308060cfb0af3
05f40603f5070900060405f80ffbfef0
fc04f6f6f20b0d02040400f0f1000900
f3f7f605fff2010d01060afaf0070af3
0a0cfb0bfa09000f06f1020ff8f50505
04060701fbf008fc00040ff90bf10df3
f707f30f0df2fcf3f806f4070a0c03f4
0bfef3040bfeff09fcf0fa050c07fdf4
08080af9fefbf109030504f60f0c0002
f80e030af002f9f1f8f408fc0ff9f30c
050e0ffd02fa04fcf103fcf409f9f006
f8f9f8060bf2fdff0f0bfa0ef1f70b0e
f10ff3faf60d01f7f00efffdf20a05f5
09f1f40df8f90bf7fdf3f1f6fbfcf506
0df70ef4f304fbf0f30ef70f0a01080f
040a010bf102060f050e0ef4f1f7fa0f
fdf602f0fefaf604f9000d02f1010302
f205f50808f9fafbfff10cf90b0a0ef0
f90d0af9f6fa0e02ff03fefa0b0af407
fbf108f8fb01f907f3f2f8fefbf60ef0
0506f904020e030b09fff9f004060e0a
f0f109030afb0605f4f4fbf2f6f202f9
fef50f08f7f0f6f5fd030505f90006f7
f90c0a0e070d04f30bf8000ef6f5000c
f0f80cf3f90d0605fe0108f2f2fd030b
0ffcfef2f2fbf909f7f40f05ff0af700
0af206030b0109fbfff4f0f7f105fe02
060efb0f00fdfaf10ffe0bfa0a0ff706
0802f40dfc04f501060afa0bfd04fff2
04f9070afbf80a0904f9fe0405000af9
08010bf003fa0908f50403fbfafc0cfd
05fef607f4000c080afefdf6f50d0a05
0cf9f1f90af3f7faf4f3fb080cf70dfa
0b0c07f20c0a030b0cf907f2010a02ff
fd05fbf005f20b0707f4fc0f06fb0efd
0c02f002070af0fcf60b03f90bf403fe
03020d00f60a040a020b04f5faf1f3f8
f7fc0f030efe0809fff3020608fd0002
0af30ff5faf905f4f703080ff80c0408
00ff06f7f0080f0b03fff0fbfe02f70c
fefbfd0a0c0909fc0505f2fafef0f7f2
fb0bf4f60c050b0af8f2fd03fa0d08f1
0e02fbf4f208fdfd0d0e0cf7fbfef9f6
f2fd0d0df10904f70c07f808f9f308f6
01f10dff0bf50305fd00fbf20df50004
f0020ef9f302f7f7f20808000107f6ff
f7f506fcf8070ff803f2f9f00ff30204
07f7f5f1f1f4fd03f0f10ffd060afd03
04f30bfcf9ff03fafafbf109fb0ef204
f50b060ff50300f0f6050f0004fcf505
020805fff905f100f1f60001f005f40e
070ff502fdfbfafbf608fc03faf50a0b
0cf4ff04f807050eff0706f703f70f09
0f01ff07fcfcf70ef5f209fc09f40e0c
f3fe0bf4fafa04fe0405fcfe0bfbf10f
06f00ffeffff090af60a07f7fe070afe
f20ff1f80f08f101050afcf5f8fcf601
0809080ef807f50dfff5f9f20f020afb
0af1030cfef406070df80ff3f3f7f9fc
fcfbfff1fbf7070a03f80df8fa0c080f
060bf0fe0b080b09fbf0ff06f3f70ef7
f3f10cfdf5f5fe06000ff30f0e060b09
f0f80b0afaf30bf5f5fb0708f7f20903
0df0f5f6fef4fc060c04090c09fdfbf2
0f0400f0f0fdf60ef6f400f4060b0909
0d00f2f8f9fe0e07f304f40300f5f605
03fd03fffd0df2f50e0bf1010e08f4f1
f9f8f10ff0f30302fc0cfcf3fd040604
0bf108020a0904f0f703f30df8000306
f205fefdfb070802fa04f808f3fdf0f6
f1f5010a0400f60af9fb04040c0700f8
f90d030a05090805f800fe01fa060c0b
030bf4fe0af10c08f30ffc0bf8f602f5
0400f5f5f50c0ff20907f1f90b09f9f9
f9f009f3ff05090002020309f1fc0bf3
0cfc05f7ff0af20dfc040ef00ffefaf7
0f0ffc0d00faf601fff40303010ff6f4
0e0f0a0bfd0d0d0e0e0b03040607faf3
090302feff07f5f2fafffc0d03000a03
fe03050c030ff6fa06050dfd050b0cf4
02fd0c0e020c07fe0df3fa07f10702f4
fe0401f9f8f6070403fef2000706f106
0e00080105faf0fffe01f8fb0fff050c
0c00fdfcf3fc0908040d090c05f0f703
f6f00b0b07f00c080c01f20105f40104
030ef9f0f104fa0afaf20cf4f9f20efb
f5f606fef700f90bfcf5f4f7f809020a
f30df701fd09fb040dfafef40a05f3fa
0bfe01f300f2f809fc0b060ef7010400
fe0bf2f7f6050dfcff08fe0d06030a08
f6fbfdf30a010904f3f20805fd010e0b
fcff0df3f40103f6050303f9f001fbf9
0c040701f701f3f80ffe00fb0ff30709
07fb0a01040ffaf8fc03f901f50c080d
02fbf0fdf005f90a070906090a0e0b06
0d0f0df808fbfcfd04070dfb010af20b
0ff90a080f0ef907f0f4f3f10f0e090f
f1fb09f4f8f10df1fffb030a050dfb0d
fe04ff0c060e09fb06fef4080df9f30a
0a0a0603f602fc03f505fd0cf60601f0
0403fe04fcf804f3fdfd0af90a01f90b
f3fefafcf4fc050d0bf9fc02f2f2fdf8
f50ffe0e0dfdf007f0f402fb0306f706
03030efff5f1f9fdf905ff0b05fbf3f9
0ffd0b05020bf7fe0af80b08fc070d00
fffcf8f3f3f8f00e05f20502f3f30cf2
050bfd0202f1fa00f80801f4fd0a0604
04f00c0a05fff8f4000cf6fe0bf6fdf5
f20ef6080dfd0af30e01fef409fa000a
0ffe0efd04f80bf3f4f00c0204f7fcf6
0afe06f5f3f90f03fbf20b0704fef2f3
ff0401fe020a0a060d0bff09f6f6020a
0d0b08fb07f2fcfe01fc02ff0c000b00
0cfefdfdf9f3f8fff701f1f500f1040a
f40af0090b03f2f30f040ef104080df3
0cf7f0000808fe0904fa04ff0f0af6f2
f5f0f704f9f600f70ef4f600f7f50bff
06ff0df101f70207030b0ef806fdf0f4
f8f7080301fffe0e0af605f0f40bf402
05040a0a0d0c0bf40400f10709fb0c02
0f04f7fdf4060bfa0eff0ef50e020bfb
0df2fa0ffdf801f5f4f20e0afc0ff1f8
f1f4f605f6f706f0fef5000cfa0d09fe
070d080df30e09f8fefd0afd030ff4f4
fffb0801f0fbf0f3f506f9fc01fbf9f1
07f0fe0cfd010e090bf9f8f1fcfc0108
02f7fcf006f3f80efafafa060306ff06
0f09f1f0f8f7fafefbfa0d0ef7f409ff
0afd08fef6f5f20aff04f6ff06f203f2
03f3f5f10bf80204fef906f4f80108f2
f7f1f203f5f4f605020903000006f100
0909fb0cff05f2f1f00f000b0c09fbf1
f60c07fdfe00faf8f804f1fa0000f40d
05060004f1f0fb0703fafff0f5f409f9
fd04f8f90a0d080b00fb0d0509fef5f3
f903fef3fdfef203fffaf0070f07f8f1
0d0a020002f60e05f801f6fefbf40ef9
f2f3090c05fef10b04fff9050afffefc
f2f9f90005f1f2f6010efff2fff607f7
0507fff109f00901f601f60204f8fe05
0d0cfe05040608fe0908f70cff0c000d
0001f105fe02000a0503fef6f1fef8f1
f70605f1f9f5fff600fef304f3fa08fc
05f903f20df3050bf1fdf4fa070b0801
f607f9010807f501f8f0f10ffef30e05
0500080a08fb0ff4f6f501fb0ff50809
f6f2fe0c07f90502f9fa070ef602f80d
feff02fafe02fdf5f6f2000e06030605
f1f805040afffa0400fc0efc02060cfb
08070a000b0101f2fe06f3f2faf6f204
f8f809faf8020c0b03000f01f90203f6
080306fa0503ff08f7f9f109f80d07fd
f7f70e05f9f3ff0afc09fb0cf30c0c06
f5fd0bf80a04f6fdf90c0703fbf40d00
060e000af50cf6020e0bfd08f0fc0203
fcf80ef908f304fe0df8f3fcf106f500
f804f4fafc0ffdfdf108f409f80308f7
0603f6fb0bfa02f6f60ff50b080afbfb
06fef5030dfbf10bfe0c09fff6f20b00
05f6fcf70901090e0002f907f80d02fe
06f3f8f50400fb0f0ef20905030df90d
f002fd0203ff06f604f0f508f7ff06f7
0ef1050afb090007fd02f7f609fbf9ff
fb080d0bfafaf00f0df100f9ff050e04
0d010df30b010d0f02080bf5f90a050d
f7f90300f7f400f009fafb0e040eff04
ff0307f8fb00ff0cf9fd0cf6f00802fb
080104fc090006f40f09f0f701f5f70d
fe0f0ef50ef4fbf6f905fefb09f901f6
f7fdf1f2050c00f6f0f40ffe020c04f7
fcf806f203fbfef2000c060e060502fd
fcfe09f00c0e02faf309fa03f00704f4
090a0cf3f1f00006f70ffd06fc020afe
f8f708f3fc01f6faf70104f603fa0eff
0507050afff909020a03f7f8f50d05f2
f1fc05faf10f0b0305f3fb080cf10007
0ff70f0f010508f6fa03f4fa0e0106f5
0ff0fcf8f9f300fbf90105f3f7f3f2f5
0efbfbf505f0fc0ff5f1080406f50af8
0908f90ef9fdfdfd05ff020ef0f206f4
07f0f80ffbf3f005fe0207f607090b06
0df80b06f00504f10df1f7fc0bf3f8fc
0cfbfef7010efffef4f2fd09f30c0e0e
0cf3080b0af5fe0e010b03f90a05040b
ff0ef70df1fffff2f0f9030a07050602
f3020bfe08f30bf806fb0109f0fcf0fe
fbf9f3fe0af20dfdf1f808fe0df90cfc
0afc0e04f701f10df80afb08040d04fc
f1050e05f70a0a0e0e06f4fa07f70d0a
0ef9f7f5f40705fefa09f6fd06f5fdf0
0bf006f1f0070c00f907fbfa0ef80f09
f208fcfb040e0308f20003f8fe0cf5f7
fbf505030ff3fd09f50af8fefd00f006
fbfff0020d09fbfff10af3f4060906f3
f404f8fa050503f6fe0dfeff0e090b01
070d02faf00906fcff0e04070bf7fcf6
f5f4ff060e040af5f4f701040bf40cf2
f9fafa0c05f3fe0af40cf6030f06f6f8
fef5f20905f6f00306f906fb00fe0ff0
030bf7f302f7040bfb05f5f8f104f1f0
f404f1060e0409010e0a030dfbf0ff0b
01fa000a01000dfb00f7090907fc0b01
fa0ff4f8030f020708f204f3fefef8ff
0501020b0efa00f20901fbf404fb08f3
090bf4060af8fffc000bfc02010ffa07
f8f6fb000ef607fcfef6f7f2f205020d
f9fef704fbfb0ff9f503f9f7050dfd08
06f60e0ffe0401f403f80afa0af7fa08
fef5f009f1f9fdf40c06fe0c05f3f5f6
0605fd050c05f70d0dfdfef40af0fa08
07f005fc0d0af009f7f50704fdfb07f2
ff03fa04f10e0bfa0b0efa060d03030a
ff01f9fb08faf50000fafaf00afdf80d
fbf3f30304fff2f5070109fbf502f300
f907f20304f2ff05faf5f8f9ff0e070b
0a09060c0ef0fef20d0a0cf4f9070b0c
fdf301f50ef40707ff05060a0602fdf3
fe06f60b03ff09f7fb040304fafc01ff
0afd0af4f3f3fb03f6f50a0cfd0af7fb
f4020705fe0bf509f408fdf3fa0804f1
07fefc030e00f906f10b0afb00f00dff
f103f9020f09f30f0d06f805f00ff106
0b02fcf8f80003080e020bf102f4f30d
09fd090407fb050cf70d0209f40ef2fb
0bf60f0c0900fb0f0bfbfdf7fc0efdf9
0df80507f904f90a0802fb0b01080df2
000207090f07f30afb0b0c0cfe0af30a
0408ff04f708fcf70cf1f80b00f20b01
04f00f02f204f502f3030a05f0fc00ff
0ff6f7f6060cfb05fff407f3010a0ff3
f403080df5f9f5fa0b0200f601030cfb
06f2f60e00f501090300fdf1080bfb0d
060003f2f6f4f8fbfff1f4050ff0f2f8
0407f809fb0b050cfff1f606ff040807
00fb0807f0fa08fff400fdf6030df1f8
0afc030207f9fc05fa090df501fa03fa
f7f607040e01fcf3fcf003f2fd0a090f
05fb050d0af9fd02f7fc01f4fe06020c
fafbfa0c0808fff801f7f1030603f10e
0ff0f4fdf008f6f80009f0fef10608f7
f505f409f1010c0d0c07faf3f60cfb09
02f5f5f5f00604f9fe060efd0b0706f6
fdfffe08ff02040df300fb05090b0afc
0df9fc0d060e040cf0050a0107f9fc07
f4fff5fa0afdf2f5fbfbfc09f8f1f5fa
09fdfc0803f1f4f1fc0200f3f90a0afa
01040df1fcf1f5f507f6ff070b02f800
06020df5f9f30e0cf70c0af4fc020e02
04fa0609f2070106f3f205080e010afe
f5fbf1faf708f002f001f5f0f7f703f2
f6090cf705f1f3060ffc0b090f03f50e
0ef2060af1fd03fcf10d07fcfe07ff05
fbfc04f7fafd050ffcf10f090ef60ef6
fd0105fc07f40e0bf0f6fbf60006fef0
f208fc0dfef8f2f6fc050b0c030cfafc
060ef1080e05fd0dfa08060304f307f9
fa040909f0000c0505fb0808f5000707
080b08000306f3fd020cfff707030cf2
fd07f503fa000bf6fc0cf4f4fc04000b
f0f8fafefa05f50c0ef503ff0804fb0b
0305fdf50e00fbfb0a0104f7fc05fb0e
0a0501fcfafff405f9080f09f6f305fd
fefaf6f007f6f4f50b000afbfbf10cf3
0704f506fe09fb02fd0a0604fbfaf9f6
f7f7fa05ff0800f20af7fafefbfaf3f3
fc0d0bfa00f2f5f3f1fafbf1fe01faf1
03080a070505fc0606030a0104fc000f
fa04ff01f30804fafc0a050bf6f70e0d
f7f9ff0a00040c0f0ef00001fa090dfc
050e0d09fdfff00a0f0c0df905f20d0b
05fd070307f7030203f403f302f60af8
0af1f20e070e080409fef203f60c0609
ff0cf905050408f0f4f70109fffbf202
f40302f20507f507f5f6f7f2fdfb04fd
f3faf7f90c080d060ef6040802f80df0
0709f8f0fd030efc0cfef7ff0a050dfb
0afffbfa09020bf8f6fa050f0dfef103
f7070d0b0bf102f003faf8f2f3f4f0f9
f10d00f8faf30801f2f506ff0b09fe02
0b0803f40a0cff0709fc02fe02f7f406
020802fff2f20a00fa05fc0006f90f0f
f0ff0e01f608050efcfc0bf0f6f00afd
f5fcfdf9f8f9fa0606050bf708010ef0
f307f80d0af606070cf1020e07fff1f5
f5f902f7fe0c0d04f5020103f60dfef2
01fcf7fc0605f5f2f4f0f3f5fe02f408
fe0302f00df309f1ff0ff5f50cfefc00
fe05f300fbf308020c02f50efb0ef3f1
f3080bfd01f4faf806f800fe0bf90d0b
0ef702fc02f307f1fbfaf6030f00fe0c
0f01f3020b01f406f4fff003fe0e00f6
020f0cfef3f8f2f7fdf0040ef105f1fd
faf50305010e02f0fff4f9020ffef8f5
0e0cf3f4f0ff08020efa05f7f0fa0b03
0e0afaf00e0df7fbf80cf305f2fcfc04
0ef2050101fc070a07f7ff06040b040f
ff01f0f609f603f5fe06f50ef40c0a04
fffc0afcf8ff0a05fc00f104f1f4f4f1
0d0ff6f5fc030d0e0ff107f40b08f500
f30409fe0e06f205f80b0b08fbfef30e
fbfc01f7f1f500ff09f0040cf3f8f5f5
f5f0f5f5fd060ef2fb06f106f10706f2
f3f60603060af80701f8fc0500fe0808
f60df5f002fff3f6f8f60efdf6f2f5f4
fe0efb0704f1f1fcf6f0fcf6f2020407
fcf30807fffb070f0606fb00fc0cfd0d
f2050ff9f8f70df4f8fdfef8fc050cff
0c05f8f00dff0f05090df3010ef50f08
0cff06f80e0b01f10609f3f9f108f209
0e0d0af6f403fd08f5080e02f3080404
03f606f3020509f802010cfe03fdf30e
0af3f10905ff0e0fff0bf90806fafa0d
0505fcf00a0c0cfefef002f805f4010d
fd050c0b08f5f20afc00fe0004fcf1ff
060afd0f0c06f7fa07f60a03f40ef2f9
f70a0c04fa0cfe0507090705f2f0f8f0
0e0ffbf5ff0307f2fffc0ff802f50a0f
0afd0b05f4fef607f7fa05040fff0d0d
f9f2f8fdfffdf10d0f0df7f8050df6fb
0f0e080dfc0ff405fbf90ff60904f8f0
f7f7fdf204f70703fd06f7f8f8f00606
f2f5fdf5f60b090e0c0a01f50607fef8
f305fff3fff904f0fd02f509f80c0300
08fdf7040b040a0ef9020f0306f9080d
f0fb0ef4fa0d00fb0dff010afef4010e
0703f0f809f30e070b0e080c03f40400
f2060107fa0701f107f4ff010508f7f6
070dfff802040e0205f9f1f90c030702
0c04f70f0d09f704f1000ff40104fffb
07f1f2fdf3f5fcf0f7f102f0f80df8fe
08fef1f00d07fef0f70a08f2f506070b
fdf102f90f0d09f0f601f8f402f3fc0e
0907f203f50ef10ff1f1010b030e0105
010df2fef2f3f0fff3f903fd0bf7f7f1
f50efc040ff6fbf80107050b0bf30902
00f8fd0a0201fef80c0e020e08fb0002
f6f20501f80ff101f20ef2010106fdfb
f2f2f008f403fc09020b08fff4f7f609
08f401f40d07f0f60f0df9f5f6f4f2f7
01f30efe05f8f3f3f7faf308f003f902
04060c04f301f1f6fd07f3080efd0bfc
0c0ff30a05fcf007ff07f8f40c0e0907
05070ef60fff010df309000403f101fc
0308fefaf5f6fbf504f0fb03f4030c07
f10e030f0900070401f6fef80e0afbf2
04f40d02f8fb0bf50bfe04090c0204fe
f4f3f4f70a0806f4fcf40c060b030d01
f0faff0cfa0dfaf0f3f30b09070aff0d
0bf60503f0030ff40f060b0706ffff01
06f409f808f40f04f2050a01f2f7040a
06fefdf4fcf60e0a0d0b000df90d0003
f7f9070efb0702fef104fdfaf7f3f804
0207f60c05ff0bf8f9fd0af7fc07f60f
000e0d0cfbf207f8f3f70903fb01fbfa
f90c0dfef6080c050ff4f2f6faf4020a
f3f2fd0df9fd08f90e09f9f0fafe0e0b
0205f004f0060d0c0ff005f6fe0802f2
09fe04f9010107fdf600f00dfef90e0a
01fa0fff01030e020cf80b01fdfc0102
f3f5fe080ff7f1f3f3fafeff07f70df7
0cf00bf5fb060d0e0bf60df50f0c00f9
f1f4f703f8f9f00a0dfb050a08f3f700
f3f1f9080e0809fa040ef8fe0b070bff
f203ff01f3090df3f3f7f206f8f3f30a
fff50e0ef708fe00060ef806f90c0c0a
04fe0df0080cfb0c0c0efff2f4050507
05040607f4fe0e0cf6f00901fa04f80a
0e0300050efe0e0a0a0cf1f40bfef600
fa06f70ef006fafd0908fdf6f4fafffe
0f0c0d0c0bfafa0dfd04f50a05ff0006
07fcf80801f7fcfb0e06f0f8010afbfa
08030ef1f9f7f60e04fefcf4f0fbf4f7
fbf80400f50606050aff00f30ffd02ff
04f3060ff10f02f403fdf1f6040e0704
fffc080ff2f7f7f60afef0fa0701fd0d
f9f4fef70e0403fa0bf5f2f10cf9fffa
f8fb0703fb0104f8f6fa02f202fd0a02
0cf806fbf60e0904fa0c0e0ffc0f0b06
faf8fbf8fe030c06f307fa04f00df900
f8fff3f40dfffaffff0f0903fc0b06ff
0504f20c0c0bf00d090204f800f0f7f4
0800f70e0ffb0af5f50903080b0cf0f5
02fd08fff409f9fc0e04f5f3fff60e02
fafefb0606f0f909f00ffffdfafe06f7
00fdfbf1f7070ff1fff2fc02f9070c06
04fbf8f2f9030c0ffdf008f4f90e04ff
0a04f4fff7f90c0a09fafd08f9f6f4ff
faf1050cf30a0c0cfdfb0afcfa01fff2
0305080efff3080309f9fc06000af40a
04080008f4fcf1090bfbfe09f404fbf6
0409060cfdf906f1f40df6fd0ff6faf5
fbf2f6fefa02fd0ef502fc0cfdfbfc07
f20a090e09020df50cf1fc03ff01fd08
0bf3f30d03030b09ff030a070b0df2f9
fa0bf4fcf307faf80b01fc0af809f3f8
01f607f0020e060ffe0900f00100f80a
fb0bf5ff07010f04f2f80dfb0500f9fc
01f2f6fa0aff050600f804f207070d07
fc080a0e07f3f903f5fc03f1f3fe0ff3
0801f2fdfd010af10606050f03fafd0b
fb02f007f7fe05f0fe0d0c07f2010fff
fa04070af70cf5fd0df50ff308000f04
f00c0b00fffe07f409fd0f0ff50b0108
03f10d01f30c05fd07f7fafe0df1f0fb
00fd08fcf5040f08f8020ff5f809f6fb
05ff08fff0f609fff9f304fc0d050af7
f00df000f8f0f3f6f3fbf20ff604fe08
09f9f704fe05f1f3f70bfdfb0ffa05f7
f00a00f1fdf80b0c0ff9f200fef0fdf1
f7f804f2f1ffff07fa0e0d040908fafe
f5f808f80804f4f00ef304fcf706f6f3
0706fef6f3070101f3f60dfe01f909f0
fafb0b06090df8fcf10a0efbf10c05f2
09f7fbfd0e0ff5080f0b07f4f30c0a09
fcfbf000f7f10b03f70d0c0efa05fa08
0704fd03f0020ffc0707fd0dfd01f40f
fdf00ffd06f30cf00af4f4fbfd060efa
fff60b0803f2fafd0e0106fd0b000af4
fc07f4f00e09f20e0009faf80af10408
02f6f90dfc0af60d0dfe0502010bf003
fcf50ffe0ffd0a09fef0f3f50cf3040e
0209060efb0af6fffa0ef9fbf2f70b0d
0302030ef20af4f9faf100f701fd05fd
f1fd0df3f1f6070c0e01000e04fb09fa
0104f2f3fdfff80dfffbf8f508f0f6f1
060007f108f20bfc04030a0a03f1f703
faf5fef8f50cfbfbf6f0060efbf5f704
0904f10e0d000ef6f1fffa0bf509fd01
0408fafc02060408f0f20a05f70b04f3
010b05fdfc0c08fc0e0304f5f802fc03
00fdf80903f006fc0df0fff90bf1fdfd
f0f5f009f3f60bf6fbfc07f8fd09f004
f6030e0cf1f107f70f09f708fdfc0ef9
08f3f809f0f7fc0df5f003f903f80004
0af106f00d040df20afd05f703f6f9fe
00f80100ff00f9fd02030d0afef7fbfe
f1fffcf907f40e0bf60100f7fd0409f7
fdf20d07f6070bf9f1f903f703f6f202
02040e0fff06f7080e09000c09f40a04
faff0ff4000808fdfef7f8fc0a01fa0c
f8ff00fff7050404f3fd01f40f0cfe00
0a0dfdfcf20a00f5060e000d06070607
060009f1f30cf5030c0af30f0c06fefd
0b0bf4f6fbff04070cf20dfcf3f00101
01f501fb00fcf5fe020f0302fef9f10f
08f00e060cf6f10efbf30604fbf8f2f9
fbf8f2fcfb0a00f40dfa090cf7090006
f2f10c03fff9fff5f2f903fc00fbfdf0
0e0107fb04fdff0700f4f902f30ff008
fb09f50b0dfc0a07f2fe09ff070afbf3
0e0bf8f1f3060e08f0fcf9ff0500f106
f4fd0cf0f104fd0bf9050c0f0a000df5
f7f4f1f0fffeff0df4f5f9f40b0af4f1
06f20ff5faf904fe09fd0e0108f10907
0d0ef4fbfe0709080204f00bf0f3faf1
06fffbfc0ef705f20cfffdf9fff9fe02
0ff7f6f0020806f20f08fbfcfcfa08f7
0901f50ff600fc0dfcf90c0cfcfe0eff
f0f4fef8f0f4f7010206fffbf701faf7
f3f106f504fa07f703fd0a0cfe0c0fff
ff0f0c09f5f3f60e0509f5f202f3f9f4
f9f9fafa0004020009020df005fff00b
f90104fff1fe0d070e09fb0cf5fb03f3
f7fbf703fc0803fafbf0fb0201faff0a
fbfa0ffff50b0305fcf3f1fdf90e0a03
0d04f6f0030f0df3f40cf7f3010bf5fb
f4f10d0bf1f703030c0c02f5f308fcf2
070f0bfc0df3fb0a01f2f108f2ff0208
07f60b0e0af70cf704fe0f03f8f5f0fa
f0fe0afffdf80b090403f306fc04f208
f9f7faf9f5010303fc0afcfef903f6f3
f60102fef1fe0b010df4f402faf7f70e
01f1f1f7fdf8f5f9f1030a0604fff1f4
0ff00a070306f4f3ff00f604f0f402fe
f4f7090d00fbfb0cf701f6020c0ef10d
fdf9faf4f1fcf2f9fc0cf8f2fff7f903
f100fb0e03f0fa03030cf00bf90309fd
08f6010afa0c07f1f8f207f00f07f70a
0e030e03f2f60406fdf8f60e0af8f7f3
f503f60800f903f70206f9fd0206fafa
010d020002f50e0c060402fc08090704
fd01fd00f30af60e0a0bf0f80c01fef4
f804f0fef5f4f3f60af406f708f5f4f8
08fc03020ef9fdf3f6f20efbf0f407f9
f3f2f6f0faf9030ffcfaf2010705fcf7
08f208f5fefffaf7f1f001fe0bfbf60b
fffbf6f7f80604fa02f8040c05070606
f8f3f80c08f1f5f70ef702f7f1fb0ef8
08fef700f50202f6fff307ff0d0c0808
f4f6fe0200f2f8090af8fbf80df3faf1
f80df7fbff0e04090505fb060ff00ff3
f40cf600f50afff9fdf1f8f0f900f6f7
080a0c0bf1f5fb0504fffef0fafdf2f9
04f5f7f900f7080cf10b07f10afe0af6
02f5fe0a00fdfd0afbf003050504fbf2
f8f4f3010f0cfe00f1f6f908ff0c020c
fb0df5f2fd0cf4f70a0b0bf00907f003
f7fff1f8030202f5f8070c02f2f0f6ff
06f1ff05f2f2020a0c0dfdf70f0a02f6
030d070df6090c0e0508f40bf9fe0104
fbf705fd0df3f8f400f1fd03f409f70a
fdf5070604080009fe0bf9f3fef9ff05
0a0df1fcf2f7f0f6fbf8fa0fff040702
f5fe03ff08f3080c0303000e020df30c
03f8f3fafd0908f00cf6f9fff5fef209
ff00fef0f6f1060703020400f706f204
0cfbf60f04f2fd00f8fdf5080e0d07f8
fef8fe010ffd06f205f005f002f300fd
0df4f7010cf0f1f9f3fd0b08f2fef2f7
04f2f6fbf500f4f4000d0309fe0b01f7
09faf10708fc0a0dfd06fcf0fdf2070b
f4fe07f8040b07fe0bf5fd020dfd05f9
fa0ff8f4f1ff00fd010a03f90405f706
f4fcfff0080502fdf6050207fafc0c09
f2030807f6fbfd03f10a02f50ffdfefd
fafffdf10ff80606faf00bfa0d0af700
08f80af60dfdf7f90ff4f1f7f80af1fb
f4f0f3fdfa07fefc0a0af8f5f000fefa
f90700040d0501fdf5f202f8030ff5f1
fc0603040bff0cfcfef9f4fff4f8f3ff
0c05fafcfcf10efd0a030806f5fd0806
04f4f0f2fd03f8040800f5fc0e05f7f6
fbf5090f010b0ff7f30b050303f9fb04
0d0f0e0a07f2f704fe00f40af2f9fa0d
fbf9fef008fb070a09f407f9f3f1faf0
f8fdfff00d07030afc08f701fdf2030f
f60f0707020a020905fcfafc0d0608fd
02f4030bf90ffb050cf505fef6f1fcfa
0800f901f80df3f70d02f0fafd0bf5f5
f508f4f9ff04f3f2f2f6f2f50e0af60c
f10909f2f6090e04f5f708020e04f407
0e03f6faf90d08f50ff8f70cfb04f3fd
0dfcfafdf0f5040807ff06f4fb0bfa0e
f00906f002f10cf2f6f005ff0efbf6f7
02f8f8f3f50ffc0e0501f00104f502fc
06060d0e0f08fbfe06f6fc0702f5f0f4
f10df10bfdfaf5ff0a03060e0b050af1
fc0507fa07070e0ef609000ef8ff020c
f4f3fe080c0d04f7f401f4fdfaf6f9f0
06fffff70b000cf6fef2f80301faf3fd
f7f5ff0a0501fef7fe0df4f10802f6f6
0bf30f0609ff0efafa0ffef301f4faf2
faf1f2f903f7f9f70f03fcf60a0df70a
0a01f30a0df6f00406f7fb0bfafff5ff
f8f101f8f30a0dfc02fdf009020e05f8
0af4fff400f2f1f70a02f5f3f5f50500
f00cfef506f5f70ef5fc060dfa00060f
f1010af00ef500fa020500fa00f80b06
00f304f0fc0efc0af3f2f1f3040f0004
0300f508f40801fbf8fb05fb0d0e0af5
f0fef2fe02ff0cf6070bf907fef5f506
f609f403f00ffd05f60cf805f506050f
02faf2080305f6f8f2f6080cf0fc06fd
fc030efe0a0d02f808fcf0f1f7f4f70e
f4000507f103fc090e01f00ff5fb0ff3
07f900f3fc060efe01fc0ff103f60fff
0af5fffaf2fff7f60dfffff6f90008f0
080d020cf005f80af3f500f7f1fbf7f0
fe0c0df1f701f30a08f2020d04f0050e
08fb04f9f30c0e09f30804fef5f5f9f6
05fc09fff9f404f0fc0a0e05f9f70406
fcfa0f0f07f40e0dfe0ff8ff020af702
07020df206f607fc0b05fc020608f907
000bf20e0b0bf305f9f30ff8f4f00201
f103f304f0f7ff0af7f70804f9020305
fdfd0ef60ff0fbf0000802f5fd0a02f1
f4f00804080afc07f2fc08f0fdfdf60e
f70efb08f30704000ef704fe0f02f6f6
04fef8f105f60c0403fcfef508f8fef7
f3050ff7f7fef30801f3f40009fc050a
0c0d0d06f5f4fcf40cfbf50100f3070d
f70bf60afdf5f1f8f005050e0a02f200
0cfe09f7f6f508f7fdf3fa00f9f2fcf1
fff0ff030e03fb04070df1fafbf90c01
f9faf90df1f1f30ff8f0ff0a0cf3f603
0ff0f00504ff0208f5f6f50e010df7f5
02050df30bfef007fc04f1f901020df3
f8f40b070600ff06f5fbf30d08fbf6f1
f0f90f04020c0c030cfd07f3f8f6f3fe
0c0a070cf5f302f4f1fbf0fd0af80b0b
f40401fff8fafe0f060afd09fd0cf604
0efdf90a0ffb070af6070a0bf0fdf207
0402090efc04f807f9080afefdf908f5
00fb04f2f2090c02f60c0ef000fd09fd
f20af70e080d060904f50d08fdf4f4f6
f6f1f8fb0ffdf40301f00e01f208f0f5
f90df30d04fafd080ef50b0207fc0af8
fcf7f0fa0ff900f2010ff8f307f2f4f0
0c0cf70dfd0af4fc0f05f40d0609090c
0001f9080efcf308f902fe01f4f80407
f1fd04f4f8f4fff9fa0a0afcfcff0203
f505fdf9f70ffb0e0800f1fa09f5f9fb
fdfb0b02f7f1f4fdf407f401f2f7fc0f
fdf7fafb020d0a07fff20b0904f80406
03060b04f5fc04f5ff0fff0305f20f08
fa01f6fcf2080805f203f7f2fff3f8f5
0a0a00fcf709f8f605f0f80e0af302f4
f0f5ff0cfa07fa0cf207fd08fffc0a09
0c08f00a0ff3f208020ef902f00df1ff
fffbfefdf9f00e05f8ff0801fb040c0f
fefff7f50601f9f205f0f1f407f005f5
0ef8fc07f4f70c04f7f80b09f4f1fe07
faf3040ef0fd03080104fcfe0dfaf60e
faf80f0c03fef801040b0b00f0060606
f70a03fe0dfb0e05f8fc09f20e06f4ff
fdf10d0bfc09fd0606f40e000c05fffd
08f4030e080cfdfffb0cfef10100f601
f9f106fef0f0f7f10bfc06fef40e0507
01f6fb07fb090ff0f2f70d010202090f
03040df50d0efa09f7ff090108080a03
f70df10b04fef8f20a0ef606070704fb
f2f8f607ff0c070404f5f0f70b060007
fdf20afef6f8f504fafefe0ef0060b0f
f1fb0c0b0b080a0d090501fe01f4050b
05f5f1f3fa0b09f0f801ff010a0b04f2
010bff020ff20efc0c07fe05fbf4f401
0b0d00fef8f7f200090af60d07fe0d00
0c08f0fcfd020f0d0b01000cf8080ff3
f40d00fbfb040ef3fd020b080b0a0cfa
fd04f3fb0ef70d0ff1050b0bfaf5090f
f9fcf60efe00f6f9fff6fafcf604f70d
f109ff0b0fff0cf4f9f507fcf30407f5
0bfb0302fd0f09f0f2f70af5ff0ef0fd
0901f6f107f80dfd060f060a06010af0
f1fdf4f80c0dfb080c050ff4fff005fd
02000e08fb0701f104f7f4040ffbf90f
090108fef60a030ffefd030c0ef8f304
f609fff6fc00f409f4f5f2fcf50905f6
f509070102f007f5fb08ff05f502f50e
0d0bfffc010104ff0305000607fb0a0d
0106fd0a0f0ef30f0a0efbfe020808f5
fffd01f3f7f7f20bf0fff8f108f5fc06
fd070107f8f30ef00406090ef90705fb
0102fc0af9fdf2fb0bf40109f5040f05
fd0701f509f206fa0ef604f00ef306f3
0ef80309fefbfd05f1000f00f2f0fbf2
f50bf6f0f9f2f4060b03f5f3fc0dfbf1
f1070302f90306f60ef30c050ef40801
faf7fb0d09f60308f1fa0f02030bf1f3
0df7faf306090909f20007fd07f405f7
f20cf10308faf2f305f1faf00806f8fe
f6f6f90af606f70f04fd0b01f005fc09
01f30b0908fef7fef9fd0f0dfaf200f0
0ff30c010ffd05fd01030a02f1080c01
0503fc0305fafe05f0fa0c0ef2f8f501
00f50606fff30a000a0e06080efa0c0d
06070a0f0af40606fc0aff05f6f7feff
0bfcf3f3090ffc01f70df2f60efefb05
f207fd06f2f1000f0c03f9f0f6f2f404
fffaf1f0f207f7f007f5fbff0703faf7
fb08f5fc0407000afaf80001f5030afc
fdfc0806030ef3f1f90a0702faf00100
fafdf5f102f3020f0501fe0cff0504f4
fcfdfef7f60afa0ef6f8f2f10ef50d01
04f1fb0902ff05f6fef5fbf80dfe00fd
0c040e0ef0f002f2f4fbf7ff09f2fef6
07f608f809f40a0d090305fd0b0e05fd
fd0df6fa07fef7f00ff5fbf1f9f1fdfc
f10009f506f3f40af9f206f10e0b08f4
02f7040607f5fdf50003f0f2f5fff207
fa08f1f30108fc08fcf2f0040ef10408
fbfe04f7f7fbf9fe01050f02f90f0bf4
0d0308fdf1f5f0fd0900f50bfb0df4f7
0efa00080f0e0ef80df8f5f60ef20af2
050803fbf30ef7080902f802f307050d
f4f5f205f90c060e0dfdf00c02f8fff3
00f7fff5fbfe09050a06f8f209f9f100
0cfd0004f40af6f00ef605f30705f3f8
fa03f4f008f1fd04f00df0fe0309f90d
fdf80ff9fa0afef7ff08030e0604f208
0a01f8f30bf8010c0af30fffff00f10f
01f0f80e09fc0702f70e0e04fb0c07f5
040af7f602f003f40d090c0cf80702fe
f506f701030b040703f503fe0efbf204
010dfb020ef6f600060afa04fe09f8fb
f209f5ff0b0ffdf509f2050a05f208f2
0afa0502f8f4fbf609ff00f2f900f20f
f8f2f6f60fff08f1fafff20bf3f7030e
f5090d010efbf2f8f1fff101f9f3f1f4
fc09ff0bf2f90a0901f6f2f1090505f4
0bf001f1fef103f70b070e0d0707fbf7
0a07f6090afb08f9faf70efefafaf001
000ff30afef8f1fd0f0bf9f5f909faf3
f401f7f6fe0c08f2f4f902050703010c
0d02fd07fb04faf005f3f3f6f605ff0b
0600faf8faf4fb0ffaf2faf00f05f300
fb05f60f050b0ff8f8020cf4fbf50df6
0c00f404f5fc0b01010d01f103f107f4
0a0efefe0af0fb090901f8f60f0dfbf8
f70902fff8fd06fffdfc09f6fe07f101
08f3f5fd0a0afe020cf7020602f6fc09
08f10d03050df1f9f70cf6f5f50b06f3
fdf2020a0bfa0c020bf7fdf40c0c03f2
0afff2f70cfefbfe080cfdf50506ff0a
fff3fa0f0ef2f30e07fbf5f9f1f408f5
fff90bf40405fbf90e060e0ef10ff40c
f3f609070b0303f6f60a0cf9f1fb0d07
03fcf004faf10602f80801f0010c05fe
f3ffff040a0905fef70e06f10bf50b05
0cf905fffcff02ff0f05f904fc010600
f401f9fe0efcf3fa0a0bfb0e09ff05f3
f1f0fd0e0ef003f8fdf1050b08f9fdf4
04f0010504f709fb0ffef701030af504
00f60e0dfb0f09f606f30f0f0506fe08
02f5080efc0007fefb08090afef7f4f4
0ef70d090002f1f800f2fe050d02f2f1
020407fd02f9f0fff3f207f40f07f3f6
f008faf203f700f60d0e05020204f201
0ffe0b06ff01f8f905f70907070ff009
ff0904030cfe04f8f4f6070ffd0801f0
0af9fff108fe010d0a01f9010503f2f2
f2f2090a0bfc0502f70f060bfa0b0d04
05fc0ff2f8f1ff060608f00c0e0ff807
03fdff01f1020a06f4fc0704f4fe0bfc
06fbff0ff00bf309f7fbfcfe07f500fd
0cf3f3f4f9fc0ffdf4faf400040df50e
f0fcf8faf0f4ff07020a08f3030303f2
fbfef3060a0700f90e0cf505f8fd05f4
0df5f707faf30ef3f2f604fcf3fa0c0f
fdf8f00ff2f7f4f90bf1fbf6f009f2fc
f900f3040c05fffd0cfcfe0c0d0302f7
f5f406fc030cf7faf400f9070cf80ef2
f808f1030bfb05f800fa0004f40100f9
0308f8060406fb0c08f3f0f40d050d0f
0107faf8f60cf10af80af5020b0f03f3
04fcf2f7f7f90b0009fdf70601f006fc
0404fd0100f3f8f60e0103f8f0fff002
0606fef005f3f605070f060cf504faf4
f5ff02f9f7f206010cfef4fbfefbfff8
0e0c00f6f1f8fbfe010c0a0d06070c09
f0f7fff006f80df5fdfcfef2f4f3f7f7
06f6fa0afff6f103f8fafa0df40b02f7
f7fe010207f6fffcff070b0c01fb0f02
0efafa0cf7f505f7f9f60f0af0f1f8f9
0e04f30bf9fdfafff0020d0c01f901fd
f4f307fcf6050efa01f0070a0501fb06
f2faf80900fdf90ffffc0ffb0dfdfff3
fa0d0d09f7fe07f50df90efb0503fdf1
fd0f0302fa0cf8f5fe05fff1f509f109
f7f3f60e05f70702fcf6f908040dfcf3
04f108faf9faf8f300fcfbff02faf20c
f30cf7f2010dfe0d0bfafc00fa0b0c08
f80ef00af00804fefc08020003f7f1f6
05f5fb05fd050302f603f808f20200fb
f20105fb0b060ef608fc0cf408f204f1
f7ff03f9f6f1fdf9f9fafefc080501f4
0cf4fb050cfe0af603020aff04f7fcf5
f30708f803f407fc08f8fa00fe0100fb
090a09030bfcfefd0308f9feffff0c0a
ff0a0e0bfbf4f3fe0a05f4fff1fdfc0f
00f8f6fa04f903f7fffd07000906010a
fbf90a03040606fdf9f9f2f4fb03fc09
0f04070806f4f104f5fe02f5000ff60a
f3f7fefc02fbf1f90bfef00400f10a04
f8070af7f6f7f409fdff07f10cf7050a
0203030ff0f207f20701f5f6f2f6f00a
0e0cfcf0f30e07fcf10afdf4f4fdf5f6
f0f6f5f10c0a09040f0ff50208f8f0f1
0cf4fef9090a0cf80905060d0707f7f0
0bf606010904feff0707f90ef4f00100
0902010201fcf102fafafef2f5fc060c
04f703f3f7f4f70d05f7080d0e09fb0c
fdf9f00d03f7f40f0b0906fa060604f4
0ff8f6f204fe060200fa010b07fe020c
0c03030503f6f90e07f2050ff900000d
fefefc0600f40ffdff000cf3f702fffe
f4f60a0a03f4fdfdfbf9f3f6fbf203f2
070efcfa0704f6f106f503090007fbfa
f1f6f2fc050a020509fe04f80504f3f9
09fc08f4f3f6f5fb06fe0f03f7060902
fdfe0e0af9fa0bf6f702fb0efff7f30f
f80207f500f2fc0a09fcf2f20c080b07
f4070c00fef6fff6fa05fff3090e0afa
fe03f5fd03f4fff2fefdf3f20e08fff4
fe09fb0803f70006f1ff000d06fa0c06
0f0bf805fb06fef1f808f4f5f603f802
0a09f9fd090af6070bf002f50df90e08
fcfe0c0409f4fbfff70e0af0f2080004
f809f507f7090afe0f0cf10309010ffb
070a00f0f1fb000bfbfb0c00070af20a
0e0208fe0703fafff5fa0df40503f0fe
0ef9f30208fe08f3fd08faf009040cf2
f00dfff6fef0030d06060cfaf4f30705
0306f7f3fb0bf606f8f5fe060bfff703
0d08f7fef9f6f1f90b0b0307f8f5f4ff
fffef800fef8fcf508f8030f0cfff703
0cfdfaf2050cfef2f1050a00f1faf806
0803f2090cfa000e030a06f901f4fefa
06f4060cf40907f8f30f0401090efffa
ff0c0bf6f40f0207f50803f008070cf1
f9f7fa05020700f4f10b080efd04fbf3
02ffff0efc0e04f1f30801f3fa090d00
05fdf90ef604f1f80f0f080e0304f201
fe02050a00060f0af9fc090d08080204
f9f5fe04fef4f70bf90406fff3fc02fb
f409f60bf408f602f90f0205f1f3fcf4
09fe0c09fa0903f0f10f010c0109010e
f7000df3f0ff0602f6f7fe060f0df3fd
0bf3f10ff20908fc0000fcf308f8f3f9
f4050ff00ffd0b0e0bfdf00ffb090102
0f08fe04f6faf6fbf70f0e0bfe07f4f7
02f5fbf5fdff06fef0fdf807f10c0405
0908f2f90e0c08f709f6f8f2f00206fd
f7f504f60ff90b03fdfa03f7fb0af5ff
060cf705f5fdf7f8fcfd020afaf3fdf1
0e070efd0e02ff0108f1fdfcf500fd01
030407f8030f0ef5f9fe0202f70c01f7
0d0a00f30ff8fb0309f501fcf009f405
f909f8080ef304f00a08f1f808f80aff
f6f706f8fb0ef40ff203fb00f00000fb
f50601fa0eff04f8f70f02f7030e0707
fef10a0ff80bf80f000708f8f005f3f2
0f05f80df9f9f401fbf8f70109000809
ff060c00f9010ff3fa08f5060d0e0208
05080f0dfbf90a0af8fcf10707fffdf6
f90a060ef1fef3feff01fa03f8fd0cff
ff080c0903fffdf309ff0bfafa0c09ff
faf4050cf3fff8f102f4f9f7fdfcfd07
f6fcf4030bf2f7f0fff304f20e01090b
01f9f7000b05f0050507f6fcf4f70bfb
fd020507f2f90e01f908050009fc07ff
f40b090905fbf1f1070800f6fc0d07f6
f1050e0704fbf40ef00bfc0b06020d02
ff05060dfb01f10f0ef90af6fb02fbf7
080d0f06faf5f909fb020afd060b0409
fdf4fbfd010cfa0cfdf203f6f6f005f4
05fe0a0d0afc0a0cf3ff060f00f6f90b
0ffb02fc02f007fc03f2fef80ef50af8
f0f7f50a0f0bf6040106080bf40af5fe
0802f909f005fc0c0f07030d0005f2f0
fdf4f406f6f1fb03f301f607f6f60a0a
fbf0070804f6fff4080307f0ff080ff8
f2fdf800f409fbf3f303f1fef90cf303
050c0ffdf4f2fd010f0d060307f006f5
0dfbf7ff05ff0b03f3fef1f8f2f502f6
00fc02faf70300f2f70bf900f0ff0cf9
f70606f00e0e08f90c0408f5fe0afd05
fe02f6f1010f0c0503f4f80d0d01fdf4
01f009fbf20ffdfef0ff0cf1f7fd0ffe
0afa07f8f50f0a01f0fa01fafa0306f3
02ff050df70a060e03fa0a01fcfb07fa
0900f9faf608080100070b07f901f1f4
fbf6fe0f04f40ff00ff0f10ef4f307fa
f80c0bf7080e0af9f204fffb0af502fa
f80d08f8f2fff5f10e00f5060601f0f0
f408f1f3f3fb0ef2f003f9f40ef7fb08
050e0ff400090a0800000f0bfff6f1f2
07090f00fcf3f6f2f7fbfefa0ff2fe0b
0bf3fe07030f00fc0100f5fc0101f401
fd0d08f600fd00070c0602f3fbff0807
fd0af8f8fe05f10ef5f30afff303f10a
06fff407f4030808fcf30ff9ff05fe04
07fd05040f0ff50e0af30bf1f40d0b0f
fffbf4f1f10a0bf908f50bff0dfff9f5
fffdf5f50306fd0c09f508010a000e06
fd0809ff0dfa0501f9010302f2fc09f3
f6f6060e00f2fb0ffdf505f7f8f307fe
020609fe010c000cf5010f02000d0307
