:10000000FEFDF2FBFA070B0807FE0AFEFEF50CF2F6
:100001000307020CFCFEFC0AF3F2050E04F10A09D7
:10000200F2FEF30806040B0D08F4FE0EFEF7FA05E5
:10000300F3FE080CF206F101F1040DFCF3FEFF040C
:100004000A0D060EF0F9FCFFF3FF04F10A0AF7F2F9
:1000050007090DFBF70905F6090FFB02FD03FB0EBA
:1000060004F600060AF9F602F9F800F9F406FE030A
:100007000D020EFEF90A01F4FEF804FDF5F400F105
:100008000A020A0D0B0E0700FB09F5F7F80809F3B9
:10000900F206F7FF0FFAF408FEF6FCF3FC0C06FE05
:10000A0000F003FB07F3F707FCFBF9F2F303F50C27
:10000B0000FC0BFE0FF8FDFDF0F1F6040901FAFE02
:10000C00F20B030B010CFBF9F30B080604000DFAC1
:10000D0000F8F7F90303F90A05F40E050D08F0FCE5
:10000E00FF0CFD080605F4040EF8FBF1F60DF7FFE4
:10000F00FCF1FD04090204F8F1FBF005F0F8F3022E
:100010000BF30100F6040F0A0BF2FAF00BFD0305D7
:10001100FF05F1F00E0709F90FFA0EFE0105F1FCDB
:10001200F4F401F50EF10EF0FE0BFCF5F70C050CF5
:100013000B08F0FAF80805FD01F5F7FEF6F50CFC00
:100014000EFEFAFB01F60E03050204FD06FCFDF2DA
:1000150009FE0805FEFEFF08F30CFA0FF60BFFFAC2
:10001600FD0EF8FF010A020E08F0F603FA0A080EB2
:10001700040AF2F8F0F9F6F3F3F00D000D09F50B09
:100018000DF802F3F1F4090108030500F800F001F6
:10001900FA0A050FF5FA0BF209FC03F8F705F0F9EE
:10001A000101F8F008F707F9F1F2060B0C0FF6F3F5
:10001B0002F90400080801F40A08F809F6090FFFB1
:10001C0003FB0D09010F030304F1FAF5FDF1F00ADE
:10001D00080D0002F0F301F0F40301FD03F6F10DFC
:10001E00FD080E0CFAFCF1FC0E000F0702080CFF97
:10001F00F507FDFD08FEF5030A03F0F2F705FF0AE9
:10002000F3FDF107F4F3FD04F008F30FFEF10C010A
:10002100F2F7FCF1F9F9F7FEFCF00003FDF902F437
:10002200050DFFFEFA08F403FF0B0700F6F60904BC
:10002300F6FAF8080FF5F2000AFA0DFC0DFAFC0FC8
:10002400FBFEF70CF70000F0F102F1F502F8FC0812
:10002500F2FC060B04F601F706F40F03F805F3F8E6
:10002600090904F10AFB0BF2FD030EFEF4F90F00B9
:1000270005F509F1010BFDF10EF4FCF709F9F7F3FA
:100028000C00F8F8FCF2F000F3F30907FA06F705FC
:1000290008F40EF6F7F2F403FEFC010B07F3FC00EB
:10002A000F07FCFBFF0B07FFFA05F103F306FF00BE
:10002B00FD090DF10A01F5F90508070AFBF7F203C3
:10002C00F200F7F30F01F80B0E05F5F7F7FAFD07E1
:10002D0003F40F06F90DF10EF9F0F0F8F8040806D7
:10002E0009F9F6F0FE0DFA0909FC0CF8090A0CF4B0
:10002F00F809F7F0FAF6FC0AF7F60FF80E01F204EA
:100030000F010FF903FEFB03090C090CFF02F00F7F
:10003100F1F30B0A0C0EFDFE0306FC0EF7F1FC09B1
:10003200FDF2F00A0C07F0FA0DF2F10109F90CFDDC
:10003300000BFCFD00F700F30BF4F1F103F70DF1F6
:1000340000FBF40E01F8F3F6F60F02080204F004D4
:100035000C00F306080A000705F0F5F0F6F9F30AD7
:100036000B0BF80AF1F2FB0609F0F7090EFC05F8BE
:100037000002F4F0F90F080802000DFE0C07F5F8AE
:1000380006F5F8090201010EF60DF1F5F5F6F5F9E8
:10003900020B03FB01FB090800FDF40EF5F2F0F0D9
:10003A00F7010CF2F107F8FC02030BF007F004F7E2
:10003B0002FEF80C0D0CFEF70405F90E08F4FC019A
:10003C00F1F0F402FB08FF09F3F7F7060AFF05FDE0
:10003D00F4F2FA080BF0FB0200FA02FC0308FC03D1
:10003E000CF1F80C03F606FFF30C0FF409F100F6C1
:10003F00050A01F60209FAFD010307FCFDFDFFF5B4
:1000400007FBFBFCF8FB0100F9F10A040AFC050DB3
:10004100FF0D0FF70EF0090FFFFBF6FFF106FC0B9A
:10004200F807FB090CF1FDFF02FF0F04040BF90C8A
:1000430009FAFDF907F4FE06F2FA0BF9F5010E01C0
:10004400FF080FF9F002F0F00FF30EF5070703F3C2
:100045000D0FF8FB02FD09F60EF8FCFFF501F106B0
:10004600030A0BFF0306F1FEFFF20403050704F89B
:1000470006050100F5F8F7FE08FCF809010BF100B9
:10004800F50A0A02F9F3FBF70BFDF00C0F07F70EA0
:10004900F6FDFAF30DF3F6060BFB03FD06070107B0
:10004A00F2FAF00801F2FCFDF8F7FCF008090EF2EA
:10004B00FCF004F9090CF5F8FD0DF00A0403F00CB3
:10004C000200020100080DF9050FFF0C0506FD0367
:10004D00F302F3F5010FF00DFEF1040B070FF9FAB2
:10004E000CF103FD09F1F5FF010AF004FB0BF5F4C9
:10004F000BF9F8F90B07FA00FA0CF00DFC0EF002A1
:10005000F3F703F809030507F8F20A0D04F40F0A91
:10005100F3F20205FBF302F5F6080E0EF4FB0805B8
:1000520000F50C0CF2F808FEFE08FFFA0603F5089C
:100053000F0704F0FCF9FDF508F7000B0003FC0B98
:100054000101000F000304010B080A0A01F402F86D
:100055000B0909FD0509F0F50E0405FD0BFA04076A
:100056000705F7FB04FF0CFC080308F3FAF8F6F2B1
:10005700F2F006FDFD09F6FC0D0209F2FB05FC00B6
:1000580005050CF0F9F0F0F10DF4F107F5F40CF0EA
:1000590007060DFEF80600FF07F6050305F8050873
:10005A00F60FFBFC05F10709F9F2FB0D03FA0C0791
:10005B00F9F003F007FA090105050E05FC06020E7F
:10005C00F0F3FAF20C0F04FC06F60E05FEF9F6FFAF
:10005D000D0A0002F6FBFEFE02FE040DFCFD0BF583
:10005E000BF1FCF2080DF1F2F4FAF70D09FDF2F4D2
:10005F00010FF7FAFE00FBF90E0A040DFFF6030578
:10006000060406FC00FA09FFF203F203FEFAFB089D
:10006100F5FFFBF7FF070504F2F9020BFB0CF404A3
:10006200F0FD09FC04F903FC0CFB04F8F5F101FCBA
:100063000B0A08F2FC0F01F601F40EF9F5FE030288
:10006400050EF5F6FCF2F5F001FAF2F10101000CCF
:10006500F8FC080CFBF9F2FCFE0B00F0F6FC06F0C0
:10006600F6FE0809F2F602F5010E0A0604F2F6F7A4
:10006700FFFCF5080400F8040AF2F10EF605F5FBAB
:100068000FF505FCF9F402050B02FB03090D080660
:10006900F60E070AFDF20BF5F706050505F604F687
:10006A000B0207FCF7F6080CFAF909F9F602FEF991
:10006B00040B0D0D0FFF0EFCFB01F702F503F3FD67
:10006C000EF302F702FF0008F9F6F609FE0C08067B
:10006D000D0F0E0C0E00F601F409F901F7030DF951
:10006E00F7F8FEF701FC040A04F90BF205F4F8F7B1
:10006F000701F9FE03040403F802F5070EF7FA0A75
:10007000FB0503030909F00C010CF40207F7F00873
:10007100FF02050FF3F8FDFF05FCF2F601FAFA0C99
:10007200F90A05FC02F5F306FBF2F20804F30BF3AE
:10007300040901FCF103FBFB05F9FF0C06FBF60584
:10007400F2FD02FAF1F00B0507FA09070D090E0E5D
:100075000404FBFF0FFE08F400F909F1F5F503048C
:10007600FCF8F70101F406F107000CFEFDFCF3F7AE
:10007700F60707FB0EFA07FEF10206FE04010F035F
:10007800F2FEFD03F1F8F4FC0D0EF30DF50FFF028F
:10007900F704FDFE0604FD08050700090D0EF90247
:10007A00FDF40C0107FB040301FE04F1000A01F977
:10007B000AFBF6FF080900FF02030F0C00F8FC0C4B
:10007C000EF6FA030104F000FAF601F60FFCF60D89
:10007D000CFAF1F2F605FFF30FF2F20AFFF0F0FFC2
:10007E000CF3F30E0007FB010BF10704050EF5F26E
:10007F00FDF40B00F7050EFC08FB040CF6F40AF573
:1000800009F200F3F60107F30EF3F1F901F1020EA4
:10008100060CF90AFC0AFFF6020905F1090F04F949
:1000820009FD0A0D05070E040AFC0EFFFEF6040D1B
:1000830004010A0202000EFD0AF6F9010AF803FE52
:10008400F6FE0CF6FBF90FFC030E03FD0B08080645
:10008500F8F1FE0F0EF503FB080DF400FDF1F5FB8D
:10008600F70D06020FF70DFAF007F4FBF708F8F77D
:10008700030B05FBF6FE03090DF2F3F8F40F08F670
:10008800F4F109FC0308FA0AF9F402F7FAF80C0784
:100089000B02F7050DF6FB04FAFDFAF5F002F4F69A
:10008A00FFF6F4FAFEFB0FF6F8FE0B02F3FA0E0087
:10008B000105020FFA0F040F09F5F5F9F505FD0E41
:10008C00F3F5010A0D030DF400F3FB04F3F2FDFC90
:10008D0006F800F4FC0C07F7FF0DF70D0D0202F753
:10008E000C07F8F6F5FDFAFF05FF0B0A0DF5080E45
:10008F0003FFF300FA06F0FE08F2FC060105FFF588
:10009000F3060D0001020FF007F9FFF204F70DF768
:10009100FEF20903FDF4FEF506FB030C0609F8F177
:100092000205FEF409FDFA04080A0901F3FA01F562
:10009300F405FB060B060CFFF809F8F20DFEFCF560
:10009400F6F30807F8F200F10902FFF801F4F5F9A4
:10009500F6F90E09F0030CF8FBF1F5F10702F10290
:10009600F7F4FF0FF507F6FEF9FFF8F206F7FA0F89
:100097000C01F404FA02040D0E0003FEF1F1090F3E
:10009800F90DFFFD0C0FF5F803FF06FDFF07FA0841
:100099000FF6FDF4F4F70EFA09090EF6FE06000E46
:10009A00F005FBFDFF0D04FA090F0400F2F9F5F172
:10009B00F7FFF303F608FEF1F9FCF2050D0B0AF975
:10009C000DFA01000FFBFA080F07F2F90700F7073A
:10009D000306F90701F00E0EF70B050F01F402F43C
:10009E000A0900FAF3F8FB00050BF5080308F1F85E
:10009F0007F308F1000604070FF1F70FFB050DF149
:1000A0000D030A0DF605FB0603F80EF0F8F6FC0941
:1000A100FDF7F6F0FBF2F8F8F50AF3FC04FB04FEA9
:1000A2000D0BFD00F3F90CF009F709FEF3FD0EF458
:1000A300FE0F000B010BF40F05FFF80E0FF60F0AFE
:1000A400FAF5F5F7FEF501040E0A0B070C01F1F25F
:1000A500080CF0020DF4F8F506060AF10C0F0FFF27
:1000A600F407FE0700F90C00F5FDF309F3F80EFE60
:1000A700F5FAFC070E03F1050CFF0607F1FB0F0E2F
:1000A800FFF90301FC00F1F2F1F803FEF0F304FAA2
:1000A900FAFEFEFBFDF0F401FCF5F8F30DFCF10995
:1000AA00F50806FA0C0B0806FA090DF3F803F90924
:1000AB00F505FF060C0FFA0A0D0801FDFC0A0E09F7
:1000AC0000FCFD010108F9F7F50AF70AF20DF1035E
:1000AD000309F9FA0706F7FD090BF60DF5F9020636
:1000AE000A0701F2F1F301060A0C02FA08FEF50C3A
:1000AF000705060CFAF6F4F20903F0FCF207F8F66E
:1000B000FCFAFCF7F7030FFC0B02FF0FFDFBF80D3A
:1000B1000A0907FFFAF3F5FFF7FB0204FEFE03F658
:1000B2000AF3040AF00BF90D080A0DFC0B04F0FD1B
:1000B300F2F1F101090E0CFCF006F70703F4F5F871
:1000B400FB070BF80B01F1FF030A0200F20A0CF92B
:1000B500FAF3FD080A03F50EFD0DF1FF02FF080E28
:1000B60003F6060702FFFC00F2F00CF6020AF7F759
:1000B700000A0D03FE0A0A080F0608FDF6F40DF400
:1000B800FE0DF5FCFEFD0502F702F3F6F1F1FA0B71
:1000B900FEF8FDF6F8090F05020D04FC0AF8000523
:1000BA00F60203F7F7FCF8F0F0030507F7FDFFFC7B
:1000BB00F10507FD0EF20CF1F809FB05FA05F40545
:1000BC000E08F4F40A0BF7050FFCF9F7FF020DFE1E
:1000BD0001040CFBF30407FBF5F007F2F6F3010B5B
:1000BE00F7F6F0F8F20C08FE0E01F6F8F60701F767
:1000BF00FF0AF401F3F9F902F70802F1F5F2FC0572
:1000C000FCFA0408FCF80DFC04FA00FBF50AF6073C
:1000C1000E0EFB02F006FA000104F6FAFCFD0EFB2F
:1000C200F50EFCF000F6F5F6FBF4FDFE0208F1F287
:1000C300FD0E02F901FA0B0FF60004F1080506F71D
:1000C4000CF20203F10CF7FDFF09020F0703F70B13
:1000C500FA0BF9FB02FEF202FEF60D0F00F404F442
:1000C600F505F10A0EFF05FAF0F7FDF4FAFD050D48
:1000C700F4F500F9FF040D070002F30207F402FF3D
:1000C800F502060602F409F2FD0405FDFB01FA0734
:1000C90009FF00FCF6FD0AF9F5FAF6F5F6FFFF0C53
:1000CA0008F1F8040B0F04F3F10505F5F608060527
:1000CB000AFEFDF30FF7F600FB05FEFBF1FF0D013A
:1000CC000AF1F60FF9F10702F60506090400020E13
:1000CD00FBF4FBF4F2F3F700FB0F0B0EF8F80D0643
:1000CE00FC01FEF00005F50808F4F10A0CF80CFD31
:1000CF00F50F030A09F505FE0004F60906FCF6050F
:1000D000F3F1FCFCFF04F5FAFBF6F8F3080D070753
:1000D1000709F3020EFE0B0C00F1F8FF030D00F609
:1000D200F2FBF1F2F6FAF7F809F8020808F3F60271
:1000D3000F0DFCF308F6FA0A02F108F8F8070EF917
:1000D400FAFBF40609F7F302F50205F8F3FBF80B53
:1000D5000EFA03F803F5F90BF9F9070EFF0508F316
:1000D600F20AFCF10CF9F4F701F5FDF901F9F40E59
:1000D700F1FA08FDF3FAF0FDF0FAF4F20DF606F185
:1000D80002010202FBFF080E01F8F50EF40E00F70C
:1000D900FA00FDF8F507F2F3000608F80EF4FCF44F
:1000DA0007030BFAF5F6FDFA0F09FD0AF607070EF4
:1000DB00020902080701FEF506030BFC01F0FFF70E
:1000DC00F2FFFAF3FA080CF9F60DF7F103F705FC49
:1000DD00F9F1F0F4FC0C08F7FEFBF1FBFDFAF3046B
:1000DE00F60200FD0402F50DF0FDF80DF00AFBFC32
:1000DF00F8FA0C0DF3FD0C04FEF9F50FF7F1F8FB30
:1000E000FBFF0A0008FCF009FC000FFEFCF304040F
:1000E100F30009F808F70D04F9F0F8F2F205FE0241
:1000E2000A02F30F0EF1F70C0F0CFF0C070CF4FAD7
:1000E30009F6F1080A0AFC00010F0EFA0A000D01D5
:1000E400050D010707F40EF1F503FC0EF40000F40E
:1000E50008FE0D0A0E0401F60501FD010F0C0F05B2
:1000E600F303020CFFFA09FEFD0CF60305F501FD0C
:1000E70006F2FA00FCF30E0C02F907F2F1F1010334
:1000E80005030E0600F7F7FB01FBF7F60F00F80112
:1000E900F3F5F7FBF90FF0F6FA000300F309FEFE4A
:1000EA00F6050EF3FFFBFFFA0005020F03F9080EEF
:1000EB000708FCFBF9FEFE00F9FF070A06F7F80A02
:1000EC00F306F9F4F206F60EF2080109F70D0EF319
:1000ED00FFF108F50608F5F2F6FAFC03FC00F40042
:1000EE000DF90CFC09080E03FFF7F7FCF6F5F5FC0D
:1000EF00F4FC0AFE05FEF8F10701FAF409FFFB0024
:1000F000F20CFEF80BF704FF08F70607F502FB0BFE
:1000F1000DF5F6FB040A0DF5F8FBF10B05040407F9
:1000F200FCF80BF7F504020C090EFD0A00FC0B01DB
:1000F30001F20F09F80FFFF3F20B0B06040BFB06DB
:1000F400F2FBFBF90FFCFAF3F209FAF3020406F53A
:1000F5000CF9F7080A070203FAFEF2FCFFFD0604F5
:1000F600FB09F30C070AF5F407FE07FBF1FA07F80C
:1000F700050DFCF5F1F803010D06F8FC03F3010803
:1000F800F6F9F605FCFAF30002FC08FEF7FCFFF53A
:1000F90007F1F4FCFC09F9050EF4F003F90EF0F42C
:1000FA00070A0807FD030A0A0100000D03F8FB08B6
:1000FB00F40EF5F4FB0202FC000FFE04020C00FAF6
:1000FC0004F505F607070B0A0303F70207FDF7FEE5
:1000FD00F1090903F500FBFE030F09010FF7FF01DD
:1000FE000A03FA000B0DFCF101020701FC0C09F2D8
:1000FF00FDF30C0FF5FBF0FC030F0BF40402F004FF
:10010000FDF20DF80F06F70A0500F50701F30003ED
:10010100F6F8FD0005FFF005F7FBFCFBF0FA050032
:10010200FAF207FE00F70CF2FDF801020EFDF5F21D
:1001030000FCF7FC0C0DF5F7FB080105F10103F604
:10010400070007F9050C0BFE0FFE0E070CF4F8F3BD
:10010500F8080F08010A020A09F0FF090DF40A01AF
:100106000CFEFDF30EFA07F50FFAFDFE04F9F4F303
:10010700FEF0F30DF101F4FAF30F0C0F000008F104
:10010800F30B01F90D07080809050100FD0207F1C5
:10010900FA0BF1F6030306F00CF403F8FE03F30906
:10010A00F5F5F6F10E0F0907FE0CF3F20B0FF70ADD
:10010B00F8080BFBF90CF2F6040D02FEF7FA0EF8E9
:10010C0008FA06F5FB09FF0508FEF3F101F60AF5FE
:10010D000BF9F0F307FB070202F60FF2FB060604EC
:10010E0000F305F7F402FDF3F70E0509000BF70CEB
:10010F000AFFF70B0DF9FFF805070AFBFD0F0EF9B4
:1001100007F9FBF0F40D05FF0AF609060B080407C2
:1001110004FFF5F9FE06F9FFFDF1FBFBF1FBFF041E
:10011200080BFC0CF30001F4FCF2FA01FBFBFDFFFF
:10011300F3F20E030E0EFEF6F8F7020DF1030C08D0
:100114000CFF05FE0B0D0BF7F2F2FC0D06F90BFCC0
:100115000DF504F9FCFB03F601F30AF406F603F307
:1001160009FC07F4FA07FFFA0807010FFEF90BFFBF
:100117000007FDF5FA0C0C050B0EF506F9F00DF4CA
:10011800020007000206F2070CF803FCFAF0F702E7
:10011900FAF102FCFEF6F105FDFAF2F706F4020027
:10011A000204F4FA05F00E01F4FCFC010D0EF5FBE5
:10011B000DF6F002FBF0080F04F409FCFB06FAF2F3
:10011C00F00302FEFF0EF7F9FAF606FDF7FB0AF5FF
:10011D00FEF80205FEF3FB08F4F009FC0B07090ECF
:10011E00FBF9FFF302FCF1060CF5F7FE060E0C00E0
:10011F0001FB0EFF0F07060B0703F60807F2F1FDB1
:10012000F101F9FD0303FFFD0700F901FCF60DFEE7
:100121000B040BFFFBF104F705F9F201040A030DBF
:100122000EF203FE0BF9F7F7F2F7FDF605F1FCF319
:1001230005F904F506020AF303060CFD090DF90FA0
:10012400FC0CFA04F905030BF2FD0BF304FCF007D5
:10012500F7F704F50DF402080EF20F000EFDF701C6
:1001260008F7F90D00FEF2020A0308060CFB0AF3B3
:1001270005F40603F5070900060405F80FFBFEF0C2
:10012800FC04F6F6F20B0D02040400F0F1000900DD
:10012900F3F7F605FFF2010D01060AFAF0070AF3E3
:10012A000A0CFB0BFA09000F06F1020FF8F5050598
:10012B0004060701FBF008FC00040FF90BF10DF3BB
:10012C00F707F30F0DF2FCF3F806F4070A0C03F4CF
:10012D000BFEF3040BFEFF09FCF0FA050C07FDF4C2
:10012E0008080AF9FEFBF109030504F60F0C00029C
:10012F00F80E030AF002F9F1F8F408FC0FF9F30CDA
:10013000050E0FFD02FA04FCF103FCF409F9F006C8
:10013100F8F9F8060BF2FDFF0F0BFA0EF1F70B0EB3
:10013200F10FF3FAF60D01F7F00EFFFDF20A05F5E5
:1001330009F1F40DF8F90BF7FDF3F1F6FBFCF50605
:100134000DF70EF4F304FBF0F30EF70F0A01080FAA
:10013500040A010BF102060F050E0EF4F1F7FA0F92
:10013600FDF602F0FEFAF604F9000D02F1010302E3
:10013700F205F50808F9FAFBFFF10CF90B0A0EF0C6
:10013800F90D0AF9F6FA0E02FF03FEFA0B0AF407A4
:10013900FBF108F8FB01F907F3F2F8FEFBF60EF004
:10013A000506F904020E030B09FFF9F004060E0A7C
:10013B00F0F109030AFB0605F4F4FBF2F6F202F9FF
:10013C00FEF50F08F7F0F6F5FD030505F90006F7D7
:10013D00F90C0A0E070D04F30BF8000EF6F5000C82
:10013E00F0F80CF3F90D0605FE0108F2F2FD030BC3
:10013F000FFCFEF2F2FBF909F7F40F05FF0AF700C7
:100140000AF206030B0109FBFFF4F0F7F105FE02CA
:10014100060EFB0F00FDFAF10FFE0BFA0A0FF70680
:100142000802F40DFC04F501060AFA0BFD04FFF2A5
:1001430004F9070AFBF80A0904F9FE0405000AF991
:1001440008010BF003FA0908F50403FBFAFC0CFDA3
:1001450005FEF607F4000C080AFEFDF6F50D0A0596
:100146000CF9F1F90AF3F7FAF4F3FB080CF70DFAD8
:100147000B0C07F20C0A030B0CF907F2010A02FF6A
:10014800FD05FBF005F20B0707F4FC0F06FB0EFD9F
:100149000C02F002070AF0FCF60B03F90BF403FEAC
:10014A0003020D00F60A040A020B04F5FAF1F3F8A9
:10014B00F7FC0F030EFE0809FFF3020608FD000281
:10014C000AF30FF5FAF905F4F703080FF80C040895
:10014D0000FF06F7F0080F0B03FFF0FBFE02F70CA4
:10014E00FEFBFD0A0C0909FC0505F2FAFEF0F7F2BA
:10014F00FB0BF4F60C050B0AF8F2FD03FA0D08F1A0
:100150000E02FBF4F208FDFD0D0E0CF7FBFEF9F6A6
:10015100F2FD0D0DF10904F70C07F808F9F308F6A3
:1001520001F10DFF0BF50305FD00FBF20DF50004A7
:10015300F0020EF9F302F7F7F20808000107F6FFC1
:10015400F7F506FCF8070FF803F2F9F00FF30204C1
:1001550007F7F5F1F1F4FD03F0F10FFD060AFD03D4
:1001560004F30BFCF9FF03FAFAFBF109FB0EF204B8
:10015700F50B060FF50300F0F6050F0004FCF50597
:10015800020805FFF905F100F1F60001F005F40EBB
:10015900070FF502FDFBFAFBF608FC03FAF50A0B9B
:10015A000CF4FF04F807050EFF0706F703F70F096B
:10015B000F01FF07FCFCF70EF5F209FC09F40E0C7E
:10015C00F3FE0BF4FAFA04FE0405FCFE0BFBF10FA4
:10015D0006F00FFEFFFF090AF60A07F7FE070AFE73
:10015E00F20FF1F80F08F101050AFCF5F8FCF601B3
:10015F000809080EF807F50DFFF5F9F20F020AFB73
:100160000AF1030CFEF406070DF80FF3F3F7F9FCA0
:10016100FCFBFFF1FBF7070A03F80DF8FA0C080F87
:10016200060BF0FE0B080B09FBF0FF06F3F70EF788
:10016300F3F10CFDF5F5FE06000FF30F0E060B0978
:10016400F0F80B0AFAF30BF5F5FB0708F7F20903AD
:100165000DF0F5F6FEF4FC060C04090C09FDFBF296
:100166000F0400F0F0FDF60EF6F400F4060B090994
:100167000D00F2F8F9FE0E07F304F40300F5F605A7
:1001680003FD03FFFD0DF2F50E0BF1010E08F4F18E
:10016900F9F8F10FF0F30302FC0CFCF3FD040604AB
:10016A000BF108020A0904F0F703F30DF80003067D
:10016B00F205FEFDFB070802FA04F808F3FDF0F6B2
:10016C00F1F5010A0400F60AF9FB04040C0700F887
:10016D00F90D030A05090805F800FE01FA060C0B46
:10016E00030BF4FE0AF10C08F30FFC0BF8F602F584
:10016F000400F5F5F50C0FF20907F1F90B09F9F990
:10017000F9F009F3FF05090002020309F1FC0BF392
:100171000CFC05F7FF0AF20DFC040EF00FFEFAF776
:100172000F0FFC0D00FAF601FFF40303010FF6F472
:100173000E0F0A0BFD0D0D0E0E0B03040607FAF30B
:10017400090302FEFF07F5F2FAFFFC0D03000A0370
:10017500FE03050C030FF6FA06050DFD050B0CF441
:1001760002FD0C0E020C07FE0DF3FA07F10702F45E
:10017700FE0401F9F8F6070403FEF2000706F1068C
:100178000E00080105FAF0FFFE01F8FB0FFF050C61
:100179000C00FDFCF3FC0908040D090C05F0F7035C
:10017A00F6F00B0B07F00C080C01F20105F4010470
:10017B00030EF9F0F104FA0AFAF20CF4F9F20EFBA1
:10017C00F5F606FEF700F90BFCF5F4F7F809020AA0
:10017D00F30DF701FD09FB040DFAFEF40A05F3FA80
:10017E000BFE01F300F2F809FC0B060EF70104006A
:10017F00FE0BF2F7F6050DFCFF08FE0D06030A084D
:10018000F6FBFDF30A010904F3F20805FD010E0B6D
:10018100FCFF0DF3F40103F6050303F9F001FBF99C
:100182000C040701F701F3F80FFE00FB0FF3070958
:1001830007FB0A01040FFAF8FC03F901F50C080D4B
:1001840002FBF0FDF005F90A070906090A0E0B0641
:100185000D0F0DF808FBFCFD04070DFB010AF20B32
:100186000FF90A080F0EF907F0F4F3F10F0E090F35
:10018700F1FB09F4F8F10DF1FFFB030A050DFB0D77
:10018800FE04FF0C060E09FB06FEF4080DF9F30A3F
:100189000A0A0603F602FC03F505FD0CF60601F062
:10018A000403FE04FCF804F3FDFD0AF90A01F90B65
:10018B00F3FEFAFCF4FC050D0BF9FC02F2F2FDF8A0
:10018C00F50FFE0E0DFDF007F0F402FB0306F7066B
:10018D0003030EFFF5F1F9FDF905FF0B05FBF3F97F
:10018E000FFD0B05020BF7FE0AF80B08FC070D001E
:10018F00FFFCF8F3F3F8F00E05F20502F3F30CF2AF
:10019000050BFD0202F1FA00F80801F4FD0A06045D
:1001910004F00C0A05FFF8F4000CF6FE0BF6FDF571
:10019200F20EF6080DFD0AF30E01FEF409FA000A4A
:100193000FFE0EFD04F80BF3F4F00C0204F7FCF66B
:100194000AFE06F5F3F90F03FBF20B0704FEF2F374
:10019500FF0401FE020A0A060D0BFF09F6F6020A24
:100196000D0B08FB07F2FCFE01FC02FF0C000B0036
:100197000CFEFDFDF9F3F8FFF701F1F500F1040A94
:10019800F40AF0090B03F2F30F040EF104080DF34F
:100199000CF7F0000808FE0904FA04FF0F0AF6F24A
:10019A00F5F0F704F9F600F70EF4F600F7F50BFFA1
:10019B0006FF0DF101F70207030B0EF806FDF0F455
:10019C00F8F7080301FFFE0E0AF605F0F40BF40263
:10019D0005040A0A0D0C0BF40400F10709FB0C020F
:10019E000F04F7FDF4060BFA0EFF0EF50E020BFB25
:10019F000DF2FA0FFDF801F5F4F20E0AFC0FF1F86B
:1001A000F1F4F605F6F706F0FEF5000CFA0D09FE7F
:1001A100070D080DF30E09F8FEFD0AFD030FF4F427
:1001A200FFFB0801F0FBF0F3F506F9FC01FBF9F1A6
:1001A30007F0FE0CFD010E090BF9F8F1FCFC010848
:1001A40002F7FCF006F3F80EFAFAFA060306FF0665
:1001A5000F09F1F0F8F7FAFEFBFA0D0EF7F409FF67
:1001A6000AFD08FEF6F5F20AFF04F6FF06F203F270
:1001A70003F3F5F10BF80204FEF906F4F80108F27F
:1001A800F7F1F203F5F4F605020903000006F10081
:1001A9000909FB0CFF05F2F1F00F000B0C09FBF13B
:1001AA00F60C07FDFE00FAF8F804F1FA0000F40D67
:1001AB0005060004F1F0FB0703FAFFF0F5F409F97B
:1001AC00FD04F8F90A0D080B00FB0D0509FEF5F32B
:1001AD00F903FEF3FDFEF203FFFAF0070F07F8F176
:1001AE000D0A020002F60E05F801F6FEFBF40EF93A
:1001AF00F2F3090C05FEF10B04FFF9050AFFFEFC43
:1001B000F2F9F90005F1F2F6010EFFF2FFF607F78A
:1001B1000507FFF109F00901F601F60204F8FE0551
:1001B2000D0CFE05040608FE0908F70CFF0C000DE5
:1001B3000001F105FE02000A0503FEF6F1FEF8F167
:1001B400F70605F1F9F5FFF600FEF304F3FA08FC7F
:1001B50005F903F20DF3050BF1FDF4FA070B080140
:1001B600F607F9010807F501F8F0F10FFEF30E0551
:1001B7000500080A08FB0FF4F6F501FB0FF508091F
:1001B800F6F2FE0C07F90502F9FA070EF602F80D39
:1001B900FEFF02FAFE02FDF5F6F2000E0603060541
:1001BA00F1F805040AFFFA0400FC0EFC02060CFB27
:1001BB0008070A000B0101F2FE06F3F2FAF6F2044D
:1001BC00F8F809FAF8020C0B03000F01F90203F628
:1001BD00080306FA0503FF08F7F9F109F80D07FD25
:1001BE00F7F70E05F9F3FF0AFC09FB0CF30C0C061E
:1001BF00F5FD0BF80A04F6FDF90C0703FBF40D002F
:1001C000060E000AF50CF6020E0BFD08F0FC020309
:1001C100FCF80EF908F304FE0DF8F3FCF106F50056
:1001C200F804F4FAFC0FFDFDF108F409F80308F74E
:1001C3000603F6FB0BFA02F6F60FF50B080AFBFB28
:1001C40006FEF5030DFBF10BFE0C09FFF6F20B0026
:1001C50005F6FCF70901090E0002F907F80D02FE14
:1001C60006F3F8F50400FB0F0EF20905030DF90D11
:1001C700F002FD0203FF06F604F0F508F7FF06F755
:1001C8000EF1050AFB090007FD02F7F609FBF9FF26
:1001C900FB080D0BFAFAF00F0DF100F9FF050E040B
:1001CA000D010DF30B010D0F02080BF5F90A050DD0
:1001CB00F7F90300F7F400F009FAFB0E040EFF0435
:1001CC00FF0307F8FB00FF0CF9FD0CF6F00802FB2F
:1001CD00080104FC090006F40F09F0F701F5F70D1D
:1001CE00FE0F0EF50EF4FBF6F905FEFB09F901F62E
:1001CF00F7FDF1F2050C00F6F0F40FFE020C04F748
:1001D000FCF806F203FBFEF2000C060E060502FD1B
:1001D100FCFE09F00C0E02FAF309FA03F00704F42D
:1001D200090A0CF3F1F00006F70FFD06FC020AFE15
:1001D300F8F708F3FC01F6FAF70104F603FA0EFF49
:1001D4000507050AFFF909020A03F7F8F50D05F208
:1001D500F1FC05FAF10F0B0305F3FB080CF1000721
:1001D6000FF70F0F010508F6FA03F4FA0E0106F5FC
:1001D7000FF0FCF8F9F300FBF90105F3F7F3F2F57B
:1001D8000EFBFBF505F0FC0FF5F1080406F50AF82F
:1001D9000908F90EF9FDFDFD05FF020EF0F206F41E
:1001DA0007F0F80FFBF3F005FE0207F607090B0616
:1001DB000DF80B06F00504F10DF1F7FC0BF3F8FC31
:1001DC000CFBFEF7010EFFFEF4F2FD09F30C0E0E04
:1001DD000CF3080B0AF5FE0E010B03F90A05040BCF
:1001DE00FF0EF70DF1FFFFF2F0F9030A0705060215
:1001DF00F3020BFE08F30BF806FB0109F0FCF0FE2F
:1001E000FBF9F3FE0AF20DFDF1F808FE0DF90CFC27
:1001E1000AFC0E04F701F10DF80AFB08040D04FCEA
:1001E200F1050E05F70A0A0E0E06F4FA07F70D0AD4
:1001E3000EF9F7F5F40705FEFA09F6FD06F5FDF03D
:1001E4000BF006F1F0070C00F907FBFA0EF80F0903
:1001E500F208FCFB040E0308F20003F8FE0CF5F719
:1001E600FBF505030FF3FD09F50AF8FEFD00F00621
:1001E700FBFFF0020D09FBFFF10AF3F4060906F322
:1001E800F404F8FA050503F6FE0DFEFF0E090B01EF
:1001E900070D02FAF00906FCFF0E04070BF7FCF6EF
:1001EA00F5F4FF060E040AF5F4F701040BF40CF219
:1001EB00F9FAFA0C05F3FE0AF40CF6030F06F6F80F
:1001EC00FEF5F20905F6F00306F906FB00FE0FF02A
:1001ED00030BF7F302F7040BFB05F5F8F104F1F03F
:1001EE00F404F1060E0409010E0A030DFBF0FF0BD9
:1001EF0001FA000A01000DFB00F7090907FC0B01DA
:1001F000FA0FF4F8030F020708F204F3FEFEF8FF0B
:1001F1000501020B0EFA00F20901FBF404FB08F3FE
:1001F200090BF4060AF8FFFC000BFC02010FFA07D8
:1001F300F8F6FB000EF607FCFEF6F7F2F205020D29
:1001F400F9FEF704FBFB0FF9F503F9F7050DFD080C
:1001F50006F60E0FFE0401F403F80AFA0AF7FA08E8
:1001F600FEF5F009F1F9FDF40C06FE0C05F3F5F633
:1001F7000605FD050C05F70D0DFDFEF40AF0FA08DE
:1001F80007F005FC0D0AF009F7F50704FDFB07F207
:1001F900FF03FA04F10E0BFA0B0EFA060D03030ABC
:1001FA00FF01F9FB08FAF50000FAFAF00AFDF80D1A
:1001FB00FBF3F30304FFF2F5070109FBF502F30030
:1001FC00F907F20304F2FF05FAF5F8F9FF0E070B05
:1001FD000A09060C0EF0FEF20D0A0CF4F9070B0CB1
:1001FE00FDF301F50EF40707FF05060A0602FDF3EF
:1001FF00FE06F60B03FF09F7FB040304FAFC01FFED
:100200000AFD0AF4F3F3FB03F6F50A0CFD0AF7FB0B
:10020100F4020705FE0BF509F408FDF3FA0804F101
:1002020007FEFC030E00F906F10B0AFB00F00DFFDE
:10020300F103F9020F09F30F0D06F805F00FF106DC
:100204000B02FCF8F80003080E020BF102F4F30DE4
:1002050009FD090407FB050CF70D0209F40EF2FBC5
:100206000BF60F0C0900FB0F0BFBFDF7FC0EFDF9BF
:100207000DF80507F904F90A0802FB0B01080DF2BE
:10020800000207090F07F30AFB0B0C0CFE0AF30A9E
:100209000408FF04F708FCF70CF1F80B00F20B01E6
:10020A0004F00F02F204F502F3030A05F0FC00FF02
:10020B000FF6F7F6060CFB05FFF407F3010A0FF3E5
:10020C00F403080DF5F9F5FA0B0200F601030CFBEB
:10020D0006F2F60E00F501090300FDF1080BFB0DDA
:10020E00060003F2F6F4F8FBFFF1F4050FF0F2F836
:10020F000407F809FB0B050CFFF1F606FF040807BE
:1002100000FB0807F0FA08FFF400FDF6030DF1F803
:100211000AFC030207F9FC05FA090DF501FA03FAD4
:10021200F7F607040E01FCF3FCF003F2FD0A090FE6
:1002130005FB050D0AF9FD02F7FC01F4FE06020CCD
:10021400FAFBFA0C0808FFF801F7F1030603F10EE4
:100215000FF0F4FDF008F6F80009F0FEF10608F716
:10021600F505F409F1010C0D0C07FAF3F60CFB09D0
:1002170002F5F5F5F00604F9FE060EFD0B0706F6E6
:10021800FDFFFE08FF02040DF300FB05090B0AFCB5
:100219000DF9FC0D060E040CF0050A0107F9FC079F
:10021A00F4FFF5FA0AFDF2F5FBFBFC09F8F1F5FA31
:10021B0009FDFC0803F1F4F1FC0200F3F90A0AFAF8
:10021C0001040DF1FCF1F5F507F6FF070B02F800F0
:10021D0006020DF5F9F30E0CF70C0AF4FC020E02B2
:10021E0004FA0609F2070106F3F205080E010AFEBA
:10021F00F5FBF1FAF708F002F001F5F0F7F703F24A
:10022000F6090CF705F1F3060FFC0B090F03F50EA9
:100221000EF2060AF1FD03FCF10D07FCFE07FF05C6
:10022200FBFC04F7FAFD050FFCF10F090EF60EF6C2
:10022300FD0105FC07F40E0BF0F6FBF60006FEF0ED
:10022400F208FC0DFEF8F2F6FC050B0C030CFAFCCC
:10022500060EF1080E05FD0DFA08060304F307F99D
:10022600FA040909F0000C0505FB0808F5000707A4
:10022700080B08000306F3FD020CFFF707030CF2A7
:10022800FD07F503FA000BF6FC0CF4F4FC04000BD4
:10022900F0F8FAFEFA05F50C0EF503FF0804FB0BCE
:10022A000305FDF50E00FBFB0A0104F7FC05FB0EB6
:10022B000A0501FCFAFFF405F9080F09F6F305FDC1
:10022C00FEFAF6F007F6F4F50B000AFBFBF10CF303
:10022D000704F506FE09FB02FD0A0604FBFAF9F6C2
:10022E00F7F7FA05FF0800F20AF7FAFEFBFAF3F306
:10022F00FC0D0BFA00F2F5F3F1FAFBF1FE01FAF116
:1002300003080A070505FC0606030A0104FC000F73
:10023100FA04FF01F30804FAFC0A050BF6F70E0DA8
:10023200F7F9FF0A00040C0F0EF00001FA090DFC99
:10023300050E0D09FDFFF00A0F0C0DF905F20D0B6C
:1002340005FD070307F7030203F403F302F60AF8C4
:100235000AF1F20E070E080409FEF203F60C060990
:10023600FF0CF905050408F0F4F70109FFFBF202CB
:10023700F40302F20507F507F5F6F7F2FDFB04FDF7
:10023800F3FAF7F90C080D060EF6040802F80DF0AB
:100239000709F8F0FD030EFC0CFEF7FF0A050DFB9C
:10023A000AFFFBFA09020BF8F6FA050F0DFEF103A5
:10023B00F7070D0B0BF102F003FAF8F2F3F4F0F9F8
:10023C00F10D00F8FAF30801F2F506FF0B09FE02C6
:10023D000B0803F40A0CFF0709FC02FE02F7F40693
:10023E00020802FFF2F20A00FA05FC0006F90F0F9F
:10023F00F0FF0E01F608050EFCFC0BF0F6F00AFDC0
:10024000F5FCFDF9F8F9FA0606050BF708010EF0C2
:10024100F307F80D0AF606070CF1020E07FFF1F5A8
:10024200F5F902F7FE0C0D04F5020103F60DFEF2BC
:1002430001FCF7FC0605F5F2F4F0F3F5FE02F40801
:10024400FE0302F00DF309F1FF0FF5F50CFEFC00BF
:10024500FE05F300FBF308020C02F50EFB0EF3F1BD
:10024600F3080BFD01F4FAF806F800FE0BF90D0BA6
:100247000EF702FC02F307F1FBFAF6030F00FE0CB0
:100248000F01F3020B01F406F4FFF003FE0E00F6B3
:10024900020F0CFEF3F8F2F7FDF0040EF105F1FDD3
:10024A00FAF50305010E02F0FFF4F9020FFEF8F5C4
:10024B000E0CF3F4F0FF08020EFA05F7F0FA0B03AD
:10024C000E0AFAF00E0DF7FBF80CF305F2FCFC04A9
:10024D000EF2050101FC070A07F7FF06040B040F68
:10024E00FF01F0F609F603F5FE06F50EF40C0A04AE
:10024F00FFFC0AFCF8FF0A05FC00F104F1F4F4F1DD
:100250000D0FF6F5FC030D0E0FF107F40B08F5007A
:10025100F30409FE0E06F205F80B0B08FBFEF30E84
:10025200FBFC01F7F1F500FF09F0040CF3F8F5F5EA
:10025300F5F0F5F5FD060EF2FB06F106F10706F2E1
:10025400F3F60603060AF80701F8FC0500FE080891
:10025500F60DF5F002FFF3F6F8F60EFDF6F2F5F4FD
:10025600FE0EFB0704F1F1FCF6F0FCF6F2020407D1
:10025700FCF30807FFFB070F0606FB00FC0CFD0D70
:10025800F2050FF9F8F70DF4F8FDFEF8FC050CFFB0
:100259000C05F8F00DFF0F05090DF3010EF50F0858
:10025A000CFF06F80E0B01F10609F3F9F108F20991
:10025B000E0D0AF6F403FD08F5080E02F30804046C
:10025C0003F606F3020509F802010CFE03FDF30E8A
:10025D000AF3F10905FF0E0FFF0BF90806FAFA0D67
:10025E000505FCF00A0C0CFEFEF002F805F4010D8B
:10025F00FD050C0B08F5F20AFC00FE0004FCF1FF93
:10026000060AFD0F0C06F7FA07F60A03F40EF2F978
:10026100F70A0C04FA0CFE0507090705F2F0F8F08D
:100262000E0FFBF5FF0307F2FFFC0FF802F50A0F72
:100263000AFD0B05F4FEF607F7FA05040FFF0D0D63
:10026400F9F2F8FDFFFDF10D0F0DF7F8050DF6FBA2
:100265000F0E080DFC0FF405FBF90FF60904F8F065
:10026600F7F7FDF204F70703FD06F7F8F8F00606C0
:10026700F2F5FDF5F60B090E0C0A01F50607FEF887
:10026800F305FFF3FFF904F0FD02F509F80C0300AC
:1002690008FDF7040B040A0EF9020F0306F9080D3D
:10026A00F0FB0EF4FA0D00FB0DFF010AFEF4010E7D
:10026B000703F0F809F30E070B0E080C03F4040058
:10026C00F2060107FA0701F107F4FF010508F7F69A
:10026D00070DFFF802040E0205F9F1F90C03070260
:10026E000C04F70F0D09F704F1000FF40104FFFB66
:10026F0007F1F2FDF3F5FCF0F7F102F0F80DF8FEEF
:1002700008FEF1F00D07FEF0F70A08F2F506070B8D
:10027100FDF102F90F0D09F0F601F8F402F3FC0E9D
:100272000907F203F50EF10FF1F1010B030E01056F
:10027300010DF2FEF2F3F0FFF3F903FD0BF7F7F1D3
:10027400F50EFC040FF6FBF80107050B0BF309025E
:1002750000F8FD0A0201FEF80C0E020E08FB000252
:10027600F6F20501F80FF101F20EF2010106FDFB9F
:10027700F2F2F008F403FC09020B08FFF4F7F609A1
:1002780008F401F40D07F0F60F0DF9F5F6F4F2F7AE
:1002790001F30EFE05F8F3F3F7FAF308F003F902B8
:10027A0004060C04F301F1F6FD07F3080EFD0BFC6E
:10027B000C0FF30A05FCF007FF07F8F40C0E090747
:10027C0005070EF60FFF010DF309000403F101FC55
:10027D000308FEFAF5F6FBF504F0FB03F4030C0797
:10027E00F10E030F0900070401F6FEF80E0AFBF259
:10027F0004F40D02F8FB0BF50BFE04090C0204FE4F
:10028000F4F3F4F70A0806F4FCF40C060B030D0172
:10028100F0FAFF0CFA0DFAF0F3F30B09070AFF0D70
:100282000BF60503F0030FF40F060B0706FFFF0141
:1002830006F409F808F40F04F2050A01F2F7040A68
:1002840006FEFDF4FCF60E0A0D0B000DF90D00033D
:10028500F7F9070EFB0702FEF104FDFAF7F3F80490
:100286000207F60C05FF0BF8F9FD0AF7FC07F60F57
:10028700000E0D0CFBF207F8F3F70903FB01FBFA6D
:10028800F90C0DFEF6080C050FF4F2F6FAF4020A62
:10028900F3F2FD0DF9FD08F90E09F9F0FAFE0E0B6E
:10028A000205F004F0060D0C0FF005F6FE0802F266
:10028B0009FE04F9010107FDF600F00DFEF90E0A57
:10028C0001FA0FFF01030E020CF80B01FDFC010239
:10028D00F3F5FE080FF7F1F3F3FAFEFF07F70DF79D
:10028E000CF00BF5FB060D0E0BF60DF50F0C00F931
:10028F00F1F4F703F8F9F00A0DFB050A08F3F7008C
:10029000F3F1F9080E0809FA040EF8FE0B070BFF3C
:10029100F203FF01F3090DF3F3F7F206F8F3F30AA2
:10029200FFF50E0EF708FE00060EF806F90C0C0A22
:1002930004FE0DF0080CFB0C0C0EFFF2F405050731
:1002940005040607F4FE0E0CF6F00901FA04F80A48
:100295000E0300050EFE0E0A0A0CF1F40BFEF60025
:10029600FA06F70EF006FAFD0908FDF6F4FAFFFE77
:100297000F0C0D0C0BFAFA0DFD04F50A05FF00060D
:1002980007FCF80801F7FCFB0E06F0F8010AFBFA68
:1002990008030EF1F9F7F60E04FEFCF4F0FBF4F78F
:10029A00FBF80400F50606050AFF00F30FFD02FF4E
:10029B0004F3060FF10F02F403FDF1F6040E07044D
:10029C00FFFC080FF2F7F7F60AFEF0FA0701FD0D66
:10029D00F9F4FEF70E0403FA0BF5F2F10CF9FFFA7F
:10029E00F8FB0703FB0104F8F6FA02F202FD0A026C
:10029F000CF806FBF60E0904FA0C0E0FFC0F0B06FA
:1002A000FAF8FBF8FE030C06F307FA04F00DF90068
:1002A100F8FFF3F40DFFFAFFFF0F0903FC0B06FF44
:1002A2000504F20C0C0BF00D090204F800F0F7F44F
:1002A3000800F70E0FFB0AF5F50903080B0CF0F530
:1002A40002FD08FFF409F9FC0E04F5F3FFF60E0253
:1002A500FAFEFB0606F0F909F00FFFFDFAFE06F768
:1002A60000FDFBF1F7070FF1FFF2FC02F9070C0660
:1002A70004FBF8F2F9030C0FFDF008F4F90E04FF54
:1002A8000A04F4FFF7F90C0A09FAFD08F9F6F4FF55
:1002A900FAF1050CF30A0C0CFDFB0AFCFA01FFF24A
:1002AA000305080EFFF3080309F9FC06000AF40A1D
:1002AB0004080008F4FCF1090BFBFE09F404FBF64F
:1002AC000409060CFDF906F1F40DF6FD0FF6FAF54E
:1002AD00FBF2F6FEFA02FD0EF502FC0CFDFBFC075F
:1002AE00F20A090E09020DF50CF1FC03FF01FD081F
:1002AF000BF3F30D03030B09FF030A070B0DF2F911
:1002B000FA0BF4FCF307FAF80B01FC0AF809F3F85F
:1002B10001F607F0020E060FFE0900F00100F80A30
:1002B200FB0BF5FF07010F04F2F80DFB0500F9FC3B
:1002B30001F2F6FA0AFF050600F804F207070D0734
:1002B400FC080A0E07F3F903F5FC03F1F3FE0FF350
:1002B5000801F2FDFD010AF10606050F03FAFD0B23
:1002B600FB02F007F7FE05F0FE0D0C07F2010FFF3B
:1002B700FA04070AF70CF5FD0DF50FF308000F0414
:1002B800F00C0B00FFFE07F409FD0F0FF50B01080A
:1002B90003F10D01F30C05FD07F7FAFE0DF1F0FB53
:1002BA0000FD08FCF5040F08F8020FF5F809F6FB33
:1002BB0005FF08FFF0F609FFF9F304FC0D050AF73B
:1002BC00F00DF000F8F0F3F6F3FBF20FF604FE0885
:1002BD0009F9F704FE05F1F3F70BFDFB0FFA05F74E
:1002BE00F00A00F1FDF80B0C0FF9F200FEF0FDF163
:1002BF00F7F804F2F1FFFF07FA0E0D040908FAFE32
:1002C000F5F808F80804F4F00EF304FCF706F6F36A
:1002C1000706FEF6F3070101F3F60DFE01F909F049
:1002C200FAFB0B06090DF8FCF10A0EFBF10C05F224
:1002C30009F7FBFD0E0FF5080F0B07F4F30C0A09F2
:1002C400FCFBF000F7F10B03F70D0C0EFA05FA082E
:1002C5000704FD03F0020FFC0707FD0DFD01F40F08
:1002C600FDF00FFD06F30CF00AF4F4FBFD060EFA42
:1002C700FFF60B0803F2FAFD0E0106FD0B000AF418
:1002C800FC07F4F00E09F20E0009FAF80AF1040826
:1002C90002F6F90DFC0AF60D0DFE0502010BF0030D
:1002CA00FCF50FFE0FFD0A09FEF0F3F50CF3040E20
:1002CB000209060EFB0AF6FFFA0EF9FBF2F70B0D0D
:1002CC000302030EF20AF4F9FAF100F701FD05FD41
:1002CD00F1FD0DF3F1F6070C0E01000E04FB09FA1A
:1002CE000104F2F3FDFFF80DFFFBF8F508F0F6F16F
:1002CF00060007F108F20BFC04030A0A03F1F70317
:1002D000FAF5FEF8F50CFBFBF6F0060EFBF5F7045D
:1002D1000904F10E0D000EF6F1FFFA0BF509FD010F
:1002D2000408FAFC02060408F0F20A05F70B04F31C
:1002D300010B05FDFC0C08FC0E0304F5F802FC03FE
:1002D40000FDF80903F006FC0DF0FFF90BF1FDFD3C
:1002D500F0F5F009F3F60BF6FBFC07F8FD09F00461
:1002D600F6030E0CF1F107F70F09F708FDFC0EF90E
:1002D70008F3F809F0F7FC0DF5F003F903F800044B
:1002D8000AF106F00D040DF20AFD05F703F6F9FE22
:1002D90000F80100FF00F9FD02030D0AFEF7FBFE1D
:1002DA00F1FFFCF907F40E0BF60100F7FD0409F72C
:1002DB00FDF20D07F6070BF9F1F903F703F6F2023E
:1002DC0002040E0FFF06F7080E09000C09F40A04BD
:1002DD00FAFF0FF4000808FDFEF7F8FC0A01FA0C0E
:1002DE00F8FF00FFF7050404F3FD01F40F0CFE0018
:1002DF000A0DFDFCF20A00F5060E000D06070607D3
:1002E000060009F1F30CF5030C0AF30F0C06FEFDF2
:1002E1000B0BF4F6FBFF04070CF20DFCF3F001011C
:1002E20001F501FB00FCF5FE020F0302FEF9F10F1E
:1002E30008F00E060CF6F10EFBF30604FBF8F2F928
:1002E400FBF8F2FCFB0A00F40DFA090CF70900060E
:1002E500F2F10C03FFF9FFF5F2F903FC00FBFDF059
:1002E6000E0107FB04FDFF0700F4F902F30FF00807
:1002E700FB09F50B0DFC0A07F2FE09FF070AFBF3F2
:1002E8000E0BF8F1F3060E08F0FCF9FF0500F10615
:1002E900F4FD0CF0F104FD0BF9050C0F0A000DF5F6
:1002EA00F7F4F1F0FFFEFF0DF4F5F9F40B0AF4F15F
:1002EB0006F20FF5FAF904FE09FD0E0108F10907F4
:1002EC000D0EF4FBFE0709080204F00BF0F3FAF113
:1002ED0006FFFBFC0EF705F20CFFFDF9FFF9FE0210
:1002EE000FF7F6F0020806F20F08FBFCFCFA08F70F
:1002EF000901F50FF600FC0DFCF90C0CFCFE0EFFDE
:1002F000F0F4FEF8F0F4F7010206FFFBF701FAF75D
:1002F100F3F106F504FA07F703FD0A0CFE0C0FFFF4
:1002F200FF0F0C09F5F3F60E0509F5F202F3F9F416
:1002F300F9F9FAFA0004020009020DF005FFF00B08
:1002F400F90104FFF1FE0D070E09FB0CF5FB03F3F6
:1002F500F7FBF703FC0803FAFBF0FB0201FAFF0A20
:1002F600FBFA0FFFF50B0305FCF3F1FDF90E0A03FC
:1002F7000D04F6F0030F0DF3F40CF7F3010BF5FB08
:1002F800F4F10D0BF1F703030C0C02F5F308FCF213
:1002F900070F0BFC0DF3FB0A01F2F108F2FF0208EC
:1002FA0007F60B0E0AF70CF704FE0F03F8F5F0FAEF
:1002FB00F0FE0AFFFDF80B090403F306FC04F208F9
:1002FC00F9F7FAF9F5010303FC0AFCFEF903F6F32E
:1002FD00F60102FEF1FE0B010DF4F402FAF7F70E12
:1002FE0001F1F1F7FDF8F5F9F1030A0604FFF1F447
:1002FF000FF00A070306F4F3FF00F604F0F402FE12
:10030000F4F7090D00FBFB0CF701F6020C0EF10DE2
:10030100FDF9FAF4F1FCF2F9FC0CF8F2FFF7F9034C
:10030200F100FB0E03F0FA03030CF00BF90309FDF5
:1003030008F6010AFA0C07F1F8F207F00F07F70AEB
:100304000E030E03F2F60406FDF8F60E0AF8F7F3F0
:10030500F503F60800F903F70206F9FD0206FAFA05
:10030600010D020002F50E0C060402FC08090704A2
:10030700FD01FD00F30AF60E0A0BF0F80C01FEF4EE
:10030800F804F0FEF5F4F3F60AF406F708F5F4F845
:1003090008FC03020EF9FDF3F6F20EFBF0F407F90F
:10030A00F3F2F6F0FAF9030FFCFAF2010705FCF72B
:10030B0008F208F5FEFFFAF7F1F001FE0BFBF60B16
:10030C00FFFBF6F7F80604FA02F8040C05070606DC
:10030D00F8F3F80C08F1F5F70EF702F7F1FB0EF81C
:10030E0008FEF700F50202F6FFF307FF0D0C0808D2
:10030F00F4F6FE0200F2F8090AF8FBF80DF3FAF121
:10031000F80DF7FBFF0E04090505FB060FF00FF3C0
:10031100F40CF600F50AFFF9FDF1F8F0F900F6F733
:10031200080A0C0BF1F5FB0504FFFEF0FAFDF2F9F9
:1003130004F5F7F900F7080CF10B07F10AFE0AF6EA
:1003140002F5FE0A00FDFD0AFBF003050504FBF2ED
:10031500F8F4F3010F0CFE00F1F6F908FF0C020CDE
:10031600FB0DF5F2FD0CF4F70A0B0BF00907F003E1
:10031700F7FFF1F8030202F5F8070C02F2F0F6FF17
:1003180006F1FF05F2F2020A0C0DFDF70F0A02F6CC
:10031900030D070DF6090C0E0508F40BF9FE01048F
:10031A00FBF705FD0DF3F8F400F1FD03F409F70A04
:10031B00FDF5070604080009FE0BF9F3FEF9FF05CE
:10031C000A0DF1FCF2F7F0F6FBF8FA0FFF040702F6
:10031D00F5FE03FF08F3080C0303000E020DF30CAA
:10031E0003F8F3FAFD0908F00CF6F9FFF5FEF20901
:10031F00FF00FEF0F6F1060703020400F706F204F1
:100320000CFBF60F04F2FD00F8FDF5080E0D07F8C2
:10032100FEF8FE010FFD06F205F005F002F300FDF7
:100322000DF4F7010CF0F1F9F3FD0B08F2FEF2F710
:1003230004F2F6FBF500F4F4000D0309FE0B01F7EC
:1003240009FAF10708FC0A0DFD06FCF0FDF2070BC3
:10032500F4FE07F8040B07FE0BF5FD020DFD05F9BC
:10032600FA0FF8F4F1FF00FD010A03F90405F706D8
:10032700F4FCFFF0080502FDF6050207FAFC0C09CC
:10032800F2030807F6FBFD03F10A02F50FFDFEFDD7
:10032900FAFFFDF10FF80606FAF00BFA0D0AF700CD
:10032A0008F80AF60DFDF7F90FF4F1F7F80AF1FBF0
:10032B00F4F0F3FDFA07FEFC0A0AF8F5F000FEFA0A
:10032C00F90700040D0501FDF5F202F8030FF5F1D4
:10032D00FC0603040BFF0CFCFEF9F4FFF4F8F3FFDD
:10032E000C05FAFCFCF10EFD0A030806F5FD0806A5
:10032F0004F4F0F2FD03F8040800F5FC0E05F7F6EF
:10033000FBF5090F010B0FF7F30B050303F9FB04A2
:100331000D0F0E0A07F2F704FE00F40AF2F9FA0DA6
:10033200FBF9FEF008FB070A09F407F9F3F1FAF0FA
:10033300F8FDFFF00D07030AFC08F701FDF2030FB8
:10033400F60F0707020A020905FCFAFC0D0608FD80
:1003350002F4030BF90FFB050CF505FEF6F1FCFACB
:100336000800F901F80DF3F70D02F0FAFD0BF5F5DB
:10033700F508F4F9FF04F3F2F2F6F2F50E0AF60CFB
:10033800F10909F2F6090E04F5F708020E04F407AC
:100339000E03F6FAF90D08F50FF8F70CFB04F3FDB7
:10033A000DFCFAFDF0F5040807FF06F4FB0BFA0EB4
:10033B00F00906F002F10CF2F6F005FF0EFBF6F7F2
:10033C0002F8F8F3F50FFC0E0501F00104F502FCD0
:10033D0006060D0E0F08FBFE06F6FC0702F5F0F49F
:10033E00F10DF10BFDFAF5FF0A03060E0B050AF19E
:10033F00FC0507FA07070E0EF609000EF8FF020C70
:10034000F4F3FE080C0D04F7F401F4FDFAF6F9F0ED
:1003410006FFFFF70B000CF6FEF2F80301FAF3FDCE
:10034200F7F5FF0A0501FEF7FE0DF4F10802F6F6D5
:100343000BF30F0609FF0EFAFA0FFEF301F4FAF2AC
:10034400FAF1F2F903F7F9F70F03FCF60A0DF70ACD
:100345000A01F30A0DF6F00406F7FB0BFAFFF5FFB9
:10034600F8F101F8F30A0DFC02FDF009020E05F8BA
:100347000AF4FFF400F2F1F70A02F5F3F5F50500F8
:10034800F00CFEF506F5F70EF5FC060DFA00060FA3
:10034900F1010AF00EF500FA020500FA00F80B06B1
:10034A0000F304F0FC0EFC0AF3F2F1F3040F0004CC
:10034B000300F508F40801FBF8FB05FB0D0E0AF59D
:10034C00F0FEF2FE02FF0CF6070BF907FEF5F506C0
:10034D00F609F403F00FFD05F60CF805F506050F9B
:10034E0002FAF2080305F6F8F2F6080CF0FC06FDC8
:10034F00FC030EFE0A0D02F808FCF0F1F7F4F70EAD
:10035000F4000507F103FC090E01F00FF5FB0FF3A4
:1003510007F900F3FC060EFE01FC0FF103F60FFF97
:100352000AF5FFFAF2FFF7F60DFFFFF6F90008F0D3
:10035300080D020CF005F80AF3F500F7F1FBF7F0CE
:10035400FE0C0DF1F701F30A08F2020D04F0050E8C
:1003550008FB04F9F30C0E09F30804FEF5F5F9F6AC
:1003560005FC09FFF9F404F0FC0A0E05F9F704069A
:10035700FCFA0F0F07F40E0DFE0FF8FF020AF70263
:1003580007020DF206F607FC0B05FC020608F90772
:10035900000BF20E0B0BF305F9F30FF8F4F00201A1
:10035A00F103F304F0F7FF0AF7F70804F9020305BB
:10035B00FDFD0EF60FF0FBF0000802F5FD0A02F1B1
:10035C00F4F00804080AFC07F2FC08F0FDFDF60EA8
:10035D00F70EFB08F30704000EF704FE0F02F6F686
:10035E0004FEF8F105F60C0403FCFEF508F8FEF7B2
:10035F00F3050FF7F7FEF30801F3F40009FC050AA4
:100360000C0D0D06F5F4FCF40CFBF50100F3070D84
:10036100F70BF60AFDF5F1F8F005050E0A02F200A9
:100362000CFE09F7F6F508F7FDF3FA00F9F2FCF1D5
:10036300FFF0FF030E03FB04070DF1FAFBF90C0189
:10036400F9FAF90DF1F1F30FF8F0FF0A0CF3F603C3
:100365000FF0F00504FF0208F5F6F50E010DF7F59F
:1003660002050DF30BFEF007FC04F1F901020DF393
:10036700F8F40B070600FF06F5FBF30D08FBF6F1A3
:10036800F0F90F04020C0C030CFD07F3F8F6F3FE8A
:100369000C0A070CF5F302F4F1FBF0FD0AF80B0B8C
:10036A00F40401FFF8FAFE0F060AFD09FD0CF60473
:10036B000EFDF90A0FFB070AF6070A0BF0FDF20761
:10036C000402090EFC04F807F9080AFEFDF908F569
:10036D0000FB04F2F2090C02F60C0EF000FD09FD83
:10036E00F20AF70E080D060904F50D08FDF4F4F671
:10036F00F6F1F8FB0FFDF40301F00E01F208F0F5C2
:10037000F90DF30D04FAFD080EF50B0207FC0AF85F
:10037100FCF7F0FA0FF900F2010FF8F307F2F4F0CD
:100372000C0CF70DFD0AF4FC0F05F40D0609090C2F
:100373000001F9080EFCF308F902FE01F4F8040782
:10037400F1FD04F4F8F4FFF9FA0A0AFCFCFF0203A5
:10037500F505FDF9F70FFB0E0800F1FA09F5F9FB94
:10037600FDFB0B02F7F1F4FDF407F401F2F7FC0FB5
:10037700FDF7FAFB020D0A07FFF20B0904F8040662
:1003780003060B04F5FC04F5FF0FFF0305F20F0855
:10037900FA01F6FCF2080805F203F7F2FFF3F8F5C3
:10037A000A0A00FCF709F8F605F0F80E0AF302F487
:10037B00F0F5FF0CFA07FA0CF207FD08FFFC0A096F
:10037C000C08F00A0FF3F208020EF902F00DF1FF6F
:10037D00FFFBFEFDF9F00E05F8FF0801FB040C0F65
:10037E00FEFFF7F50601F9F205F0F1F407F005F5C9
:10037F000EF8FC07F4F70C04F7F80B09F4F1FE077D
:10038000FAF3040EF0FD03080104FCFE0DFAF60E6C
:10038100FAF80F0C03FEF801040B0B00F006060649
:10038200F70A03FE0DFB0E05F8FC09F20E06F4FF58
:10038300FDF10D0BFC09FD0606F40E000C05FFFD47
:1003840008F4030E080CFDFFFB0CFEF10100F6015E
:10038500F9F106FEF0F0F7F10BFC06FEF40E050799
:1003860001F6FB07FB090FF0F2F70D010202090F58
:1003870003040DF50D0EFA09F7FF090108080A0322
:10038800F70DF10B04FEF8F20A0EF606070704FB58
:10038900F2F8F607FF0C070404F5F0F70B0600076F
:10038A00FDF20AFEF6F8F504FAFEFE0EF0060B0F71
:10038B00F1FB0C0B0B080A0D090501FE01F4050B23
:10038C0005F5F1F3FA0B09F0F801FF010A0B04F281
:10038D00010BFF020FF20EFC0C07FE05FBF4F4014E
:10038E000B0D00FEF8F7F200090AF60D07FE0D0040
:10038F000C08F0FCFD020F0D0B01000CF8080FF329
:10039000F40D00FBFB040EF3FD020B080B0A0CFA34
:10039100FD04F3FB0EF70D0FF1050B0BFAF5090F39
:10039200F9FCF60EFE00F6F9FFF6FAFCF604F70D8C
:10039300F109FF0B0FFF0CF4F9F507FCF30407F564
:100394000BFB0302FD0F09F0F2F70AF5FF0EF0FD67
:100395000901F6F107F80DFD060F060A06010AF038
:10039600F1FDF4F80C0DFB080C050FF4FFF005FD5C
:1003970002000E08FB0701F104F7F4040FFBF90F45
:10039800090108FEF60A030FFEFD030C0EF8F3042C
:10039900F609FFF6FC00F409F4F5F2FCF50905F697
:10039A00F509070102F007F5FB08FF05F502F50E5E
:10039B000D0BFFFC010104FF0305000607FB0A0D13
:10039C000106FD0A0F0EF30F0A0EFBFE020808F50C
:10039D00FFFD01F3F7F7F20BF0FFF8F108F5FC069E
:10039E00FD070107F8F30EF00406090EF90705FB39
:10039F000102FC0AF9FDF2FB0BF40109F5040F054C
:1003A000FD0701F509F206FA0EF604F00EF306F366
:1003A1000EF80309FEFBFD05F1000F00F2F0FBF270
:1003A200F50BF6F0F9F2F4060B03F5F3FC0DFBF195
:1003A300F1070302F90306F60EF30C050EF4080138
:1003A400FAF7FB0D09F60308F1FA0F02030BF1F358
:1003A5000DF7FAF306090909F20007FD07F405F749
:1003A600F20CF10308FAF2F305F1FAF00806F8FE8A
:1003A700F6F6F90AF606F70F04FD0B01F005FC094E
:1003A80001F30B0908FEF7FEF9FD0F0DFAF200F054
:1003A9000FF30C010FFD05FD01030A02F1080C0111
:1003AA000503FC0305FAFE05F0FA0C0EF2F8F50156
:1003AB0000F50606FFF30A000A0E06080EFA0C0DFE
:1003AC0006070A0F0AF40606FC0AFF05F6F7FEFF1D
:1003AD000BFCF3F3090FFC01F70DF2F60EFEFB0546
:1003AE00F207FD06F2F1000F0C03F9F0F6F2F40479
:1003AF00FFFAF1F0F207F7F007F5FBFF0703FAF793
:1003B000FB08F5FC0407000AFAF80001F5030AFC43
:1003B100FDFC0806030EF3F1F90A0702FAF0010049
:1003B200FAFDF5F102F3020F0501FE0CFF0504F44C
:1003B300FCFDFEF7F60AFA0EF6F8F2F10EF50D0162
:1003B40004F1FB0902FF05F6FEF5FBF80DFE00FD56
:1003B5000C040E0EF0F002F2F4FBF7FF09F2FEF664
:1003B60007F608F809F40A0D090305FD0B0E05FDFD
:1003B700FD0DF6FA07FEF7F00FF5FBF1F9F1FDFC7D
:1003B800F10009F506F3F40AF9F206F10E0B08F458
:1003B90002F7040607F5FDF50003F0F2F5FFF20771
:1003BA00FA08F1F30108FC08FCF2F0040EF1040853
:1003BB00FBFE04F7F7FBF9FE01050F02F90F0BF437
:1003BC000D0308FDF1F5F0FD0900F50BFB0DF4F74D
:1003BD000EFA00080F0E0EF80DF8F5F60EF20AF211
:1003BE00050803FBF30EF7080902F802F307050D13
:1003BF00F4F5F205F90C060E0DFDF00C02F8FFF343
:1003C00000F7FFF5FBFE09050A06F8F209F9F1004E
:1003C1000CFD0004F40AF6F00EF605F30705F3F848
:1003C200FA03F4F008F1FD04F00DF0FE0309F90D53
:1003C300FDF80FF9FA0AFEF7FF08030E0604F20818
:1003C4000A01F8F30BF8010C0AF30FFFFF00F10F19
:1003C50001F0F80E09FC0702F70E0E04FB0C07F509
:1003C600040AF7F602F003F40D090C0CF80702FE16
:1003C700F506F701030B040703F503FE0EFBF20422
:1003C800010DFB020EF6F600060AFA04FE09F8FB18
:1003C900F209F5FF0B0FFDF509F2050A05F208F22E
:1003CA000AFA0502F8F4FBF609FF00F2F900F20F47
:1003CB00F8F2F6F60FFF08F1FAFFF20BF3F7030E54
:1003CC00F5090D010EFBF2F8F1FFF101F9F3F1F46F
:1003CD00FC09FF0BF2F90A0901F6F2F1090505F432
:1003CE000BF001F1FEF103F70B070E0D0707FBF71C
:1003CF000A07F6090AFB08F9FAF70EFEFAFAF00126
:1003D000000FF30AFEF8F1FD0F0BF9F5F909FAF336
:1003D100F401F7F6FE0C08F2F4F902050703010C2B
:1003D2000D02FD07FB04FAF005F3F3F6F605FF0B39
:1003D3000600FAF8FAF4FB0FFAF2FAF00F05F3004D
:1003D400FB05F60F050B0FF8F8020CF4FBF50DF610
:1003D5000C00F404F5FC0B01010D01F103F107F428
:1003D6000A0EFEFE0AF0FB090901F8F60F0DFBF8FE
:1003D700F70902FFF8FD06FFFDFC09F6FE07F1012C
:1003D80008F3F5FD0A0AFE020CF7020602F6FC090C
:1003D90008F10D03050DF1F9F70CF6F5F50B06F328
:1003DA00FDF2020A0BFA0C020BF7FDF40C0C03F205
:1003DB000AFFF2F70CFEFBFE080CFDF50506FF0A03
:1003DC00FFF3FA0F0EF2F30E07FBF5F9F1F408F543
:1003DD00FFF90BF40405FBF90E060E0EF10FF40CEC
:1003DE00F3F609070B0303F6F60A0CF9F1FB0D070A
:1003DF0003FCF004FAF10602F80801F0010C05FE27
:1003E000F3FFFF040A0905FEF70E06F10BF50B05F6
:1003E1000CF905FFFCFF02FF0F05F904FC010600F3
:1003E200F401F9FE0EFCF3FA0A0BFB0E09FF05F30A
:1003E300F1F0FD0E0EF003F8FDF1050B08F9FDF435
:1003E40004F0010504F709FB0FFEF701030AF50405
:1003E50000F60E0DFB0F09F606F30F0F0506FE08C6
:1003E60002F5080EFC0007FEFB08090AFEF7F4F406
:1003E7000EF70D090002F1F800F2FE050D02F2F119
:1003E800020407FD02F9F0FFF3F207F40F07F3F632
:1003E900F008FAF203F700F60D0E05020204F20115
:1003EA000FFE0B06FF01F8F905F70907070FF009D9
:1003EB00FF0904030CFE04F8F4F6070FFD0801F0F7
:1003EC000AF9FFF108FE010D0A01F9010503F2F209
:1003ED00F2F2090A0BFC0502F70F060BFA0B0D04CE
:1003EE0005FC0FF2F8F1FF060608F00C0E0FF807E9
:1003EF0003FDFF01F1020A06F4FC0704F4FE0BFC07
:1003F00006FBFF0FF00BF309F7FBFCFE07F500FD12
:1003F1000CF3F3F4F9FC0FFDF4FAF400040DF50E1F
:1003F200F0FCF8FAF0F4FF07020A08F3030303F231
:1003F300FBFEF3060A0700F90E0CF505F8FD05F4FC
:1003F4000DF5F707FAF30EF3F2F604FCF3FA0C0F1B
:1003F500FDF8F00FF2F7F4F90BF1FBF6F009F2FC5A
:1003F600F900F3040C05FFFD0CFCFE0C0D0302F7DF
:1003F700F5F406FC030CF7FAF400F9070CF80EF213
:1003F800F808F1030BFB05F800FA0004F40100F912
:1003F9000308F8060406FB0C08F3F0F40D050D0FCD
:1003FA000107FAF8F60CF10AF80AF5020B0F03F3F3
:1003FB0004FCF2F7F7F90B0009FDF70601F006FC18
:1003FC000404FD0100F3F8F60E0103F8F0FFF0021F
:1003FD000606FEF005F3F605070F060CF504FAF4F4
:1003FE00F5FF02F9F7F206010CFEF4FBFEFBFFF827
:1003FF000E0C00F6F1F8FBFE010C0A0D06070C09B6
:10040000F0F7FFF006F80DF5FDFCFEF2F4F3F7F758
:1004010006F6FA0AFFF6F103F8FAFA0DF40B02F711
:10040200F7FE010207F6FFFCFF070B0C01FB0F02D0
:100403000EFAFA0CF7F505F7F9F60F0AF0F1F8F919
:100404000E04F30BF9FDFAFFF0020D0C01F901FDE6
:10040500F4F307FCF6050EFA01F0070A0501FB06F1
:10040600F2FAF80900FDF90FFFFC0FFB0DFDFFF3F3
:10040700FA0D0D09F7FE07F50DF90EFB0503FDF1D2
:10040800FD0F0302FA0CF8F5FE05FFF1F509F109F5
:10040900F7F3F60E05F70702FCF6F908040DFCF3FD
:10040A0004F108FAF9FAF8F300FCFBFF02FAF20C1D
:10040B00F30CF7F2010DFE0D0BFAFC00FA0B0C08C6
:10040C00F80EF00AF00804FEFC08020003F7F1F6FF
:10040D0005F5FB05FD050302F603F808F20200FBF6
:10040E00F20105FB0B060EF608FC0CF408F204F1E3
:10040F00F7FF03F9F6F1FDF9F9FAFEFC080501F41F
:100410000CF4FB050CFE0AF603020AFF04F7FCF5D8
:10041100F30708F803F407FC08F8FA00FE0100FBF3
:10041200090A09030BFCFEFD0308F9FEFFFF0C0AA3
:10041300FF0A0E0BFBF4F3FE0A05F4FFF1FDFC0FDC
:1004140000F8F6FA04F903F7FFFD07000906010ADC
:10041500FBF90A03040606FDF9F9F2F4FB03FC09EE
:100416000F04070806F4F104F5FE02F5000FF60ACC
:10041700F3F7FEFC02FBF1F90BFEF00400F10A040E
:10041800F8070AF7F6F7F409FDFF07F10CF7050AE4
:100419000203030FF0F207F20701F5F6F2F6F00A0C
:10041A000E0CFCF0F30E07FCF10AFDF4F4FDF5F600
:10041B00F0F6F5F10C0A09040F0FF50208F8F0F1EC
:10041C000CF4FEF9090A0CF80905060D0707F7F0AC
:10041D000BF606010904FEFF0707F90EF4F00100C3
:10041E000902010201FCF102FAFAFEF2F5FC060CE9
:10041F0004F703F3F7F4F70D05F7080D0E09FB0CBE
:10042000FDF9F00D03F7F40F0B0906FA060604F4C4
:100421000FF8F6F204FE060200FA010B07FE020CB9
:100422000C03030503F6F90E07F2050FF900000DA0
:10042300FEFEFC0600F40FFDFF000CF3F702FFFED7
:10042400F4F60A0A03F4FDFDFBF9F3F6FBF203F21A
:10042500070EFCFA0704F6F106F503090007FBFAC7
:10042600F1F6F2FC050A020509FE04F80504F3F9E3
:1004270009FC08F4F3F6F5FB06FE0F03F7060902CD
:10042800FDFE0E0AF9FA0BF6F702FB0EFFF7F30FC3
:10042900F80207F500F2FC0A09FCF2F20C080B07C6
:10042A00F4070C00FEF6FFF6FA05FFF3090E0AFAC6
:10042B00FE03F5FD03F4FFF2FEFDF3F20E08FFF4FD
:10042C00FE09FB0803F70006F1FF000D06FA0C06A7
:10042D000F0BF805FB06FEF1F808F4F5F603F802DC
:10042E000A09F9FD090AF6070BF002F50DF90E0897
:10042F00FCFE0C0409F4FBFFF70E0AF0F2080004BF
:10043000F809F507F7090AFE0F0CF10309010FFB94
:10043100070A00F0F1FB000BFBFB0C00070AF20AB4
:100432000E0208FE0703FAFFF5FA0DF40503F0FEBB
:100433000EF9F30208FE08F3FD08FAF009040CF2C2
:10043400F00DFFF6FEF0030D06060CFAF4F30705C3
:100435000306F7F3FB0BF606F8F5FE060BFFF703CD
:100436000D08F7FEF9F6F1F90B0B0307F8F5F4FFD3
:10043700FFFEF800FEF8FCF508F8030F0CFFF703C2
:100438000CFDFAF2050CFEF2F1050A00F1FAF806D5
:100439000803F2090CFA000E030A06F901F4FEFAA0
:10043A0006F4060CF40907F8F30F0401090EFFFA93
:10043B00FF0C0BF6F40F0207F50803F008070CF19D
:10043C00F9F7FA05020700F4F10B080EFD04FBF3C3
:10043D0002FFFF0EFC0E04F1F30801F3FA090D00A3
:10043E0005FDF90EF604F1F80F0F080E0304F20194
:10043F00FE02050A00060F0AF9FC090D080802045E
:10044000F9F5FE04FEF4F70BF90406FFF3FC02FBDA
:10044100F409F60BF408F602F90F0205F1F3FCF4D6
:1004420009FE0C09FA0903F0F10F010C0109010E72
:10044300F7000DF3F0FF0602F6F7FE060F0DF3FDBE
:100444000BF3F10FF20908FC0000FCF308F8F3F9D0
:10044500F4050FF00FFD0B0E0BFDF00FFB0901027C
:100446000F08FE04F6FAF6FBF70F0E0BFE07F4F79D
:1004470002F5FBF5FDFF06FEF0FDF807F10C0405CC
:100448000908F2F90E0C08F709F6F8F2F00206FDB1
:10044900F7F504F60FF90B03FDFA03F7FB0AF5FFBD
:10044A00060CF705F5FDF7F8FCFD020AFAF3FDF1D3
:10044B000E070EFD0E02FF0108F1FDFCF500FD018C
:10044C00030407F8030F0EF5F9FE0202F70C01F78F
:10044D000D0A00F30FF8FB0309F501FCF009F405A3
:10044E00F909F8080EF304F00A08F1F808F80AFFA3
:10044F00F6F706F8FB0EF40FF203FB00F00000FBCB
:10045000F50601FA0EFF04F8F70F02F7030E07077F
:10045100FEF10A0FF80BF80F000708F8F005F3F2A8
:100452000F05F80DF9F9F401FBF8F7010900080995
:10045300FF060C00F9010FF3FA08F5060D0E02086A
:1004540005080F0DFBF90A0AF8FCF10707FFFDF682
:10045500F90A060EF1FEF3FEFF01FA03F8FD0CFFA3
:10045600FF080C0903FFFDF309FF0BFAFA0C09FF6D
:10045700FAF4050CF3FFF8F102F4F9F7FDFCFD07D8
:10045800F6FCF4030BF2F7F0FFF304F20E01090BBC
:1004590001F9F7000B05F0050507F6FCF4F70BFBAE
:10045A00FD020507F2F90E01F908050009FC07FF7C
:10045B00F40B090905FBF1F1070800F6FC0D07F693
:10045C00F1050E0704FBF40EF00BFC0B06020D026B
:10045D00FF05060DFB01F10F0EF90AF6FB02FBF786
:10045E00080D0F06FAF5F909FB020AFD060B040951
:10045F00FDF4FBFD010CFA0CFDF203F6F6F005F4CA
:1004600005FE0A0D0AFC0A0CF3FF060F00F6F90B55
:100461000FFB02FC02F007FC03F2FEF80EF50AF89E
:10046200F0F7F50A0F0BF6040106080BF40AF5FE85
:100463000802F909F005FC0C0F07030D0005F2F073
:10046400FDF4F406F6F1FB03F301F607F6F60A0AC7
:10046500FBF0070804F6FFF4080307F0FF080FF890
:10046600F2FDF800F409FBF3F303F1FEF90CF303D4
:10046700050C0FFDF4F2FD010F0D060307F006F56D
:100468000DFBF7FF05FF0B03F3FEF1F8F2F502F6BB
:1004690000FC02FAF70300F2F70BF900F0FF0CF9B0
:10046A00F70606F00E0E08F90C0408F5FE0AFD055B
:10046B00FE02F6F1010F0C0503F4F80D0D01FDF47E
:10046C0001F009FBF20FFDFEF0FF0CF1F7FD0FFEA2
:10046D000AFA07F8F50F0A01F0FA01FAFA0306F392
:10046E0002FF050DF70A060E03FA0A01FCFB07FA56
:10046F000900F9FAF608080100070B07F901F1F482
:10047000FBF6FE0F04F40FF00FF0F10EF4F307FAA1
:10047100F80C0BF7080E0AF9F204FFFB0AF502FA71
:10047200F80D08F8F2FFF5F10E00F5060601F0F0AE
:10047300F408F1F3F3FB0EF2F003F9F40EF7FB08C3
:10047400050E0FF400090A0800000F0BFFF6F1F255
:1004750007090F00FCF3F6F2F7FBFEFA0FF2FE0B8D
:100476000BF3FE07030F00FC0100F5FC0101F4017C
:10047700FD0D08F600FD00070C0602F3FBFF080759
:10047800FD0AF8F8FE05F10EF5F30AFFF303F10A99
:1004790006FFF407F4030808FCF30FF9FF05FE046F
:10047A0007FD05040F0FF50E0AF30BF1F40D0B0F30
:10047B00FFFBF4F1F10A0BF908F50BFF0DFFF9F592
:10047C00FFFDF5F50306FD0C09F508010A000E0653
:10047D00FD0809FF0DFA0501F9010302F2FC09F36C
:10047E00F6F6060E00F2FB0FFDF505F7F8F307FE94
:10047F00020609FE010C000CF5010F02000D030727
:00000001ff
