365cf8360032fc3aa8f96c3eab53b367
f4b86574448cab49795880fd5ab50ab8
f7227b57de7461b0db7927ed210c1e74
6cba08b8c84af9272db837c88b92f8f3
05885b18cc6f29bd3ccb2a17fb3b6525
8ffd73418d06667a6c8fab781bfafc23
8d11b1834676b511c9de49bdf6efeb0d
a9576c70e8c3e2f94915451c873403c6
9a97f0996581dbadea246f13524f1bad
bc22292ba3bf3279be3a263878772936
72d6db6c20d59799998ab81cbac62133
26746332457b7c2e86edb51a6704e21f
8f749eaaaf05d1bf653a182f0b38fc5f
9851bb119f10a301957c112c6af852b4
81f64ef8d76b6d8ed97765567dcb91dd
c58629e3e0c4ac37504a1a3526a79609
939297c6d4e0549d76646da2c91f5bfe
61228e0d5cbe3e0adb17047355bcd055
91fc94370e246f7f0728adc231a84c98
9955768526ed5c4069409fba87e50378
89086398b804027f1d5bd891a7236085
fd10df9f9cd19c650636ddb7d59de27d
900c2860724e10e37a75136e5be041e3
c761a0541de56f8043887e567e47c254
17dd6aa64970e8707906291f3d8c8377
0a1b642db8fd198cabc9f6b5e74b4834
33edf4be1c17bad45f94bf67495f2aae
0f043813f39461add95a476293a3eb4d
13c22ee19654df9280eb8b58d43a6768
73b86d75ac3ecc05234c2319d16bba45
ac2ca63be13d50e2e30d553d6c29eb91
d4f3e613dd24d031330bac9222705b10
df7b934d4e9c70b059d37708a1d07bf0
54abc89d073fda3619ed028e82369685
e20d274677714b7f749cbb8ebb9038f2
6e3b6d3a3a3fe70fb0a2f9e586fef403
c2149e6955d8b0b3f18c8a1d5863ee53
d45179b6d83b2f208bfc9dc2528c7ddb
fcf2b292db58571e517bdebce09fa354
62557aca6528ebd729e1fb882c4ad28e
aa97af771ef4ddf7022d77fb61b10bae
06e1f27643bcc5ae7c62cf193fb64293
1006a8ead4b59d312249811235ef398d
a980d0d702937d978ce8502e5d772794
7af42a5c530674c4764ce142cd5a05e6
67dc58de5d21767d220252101062f61d
0d95e786035a018a852857dc01ac68e3
dbe2f580a0bf70d757ecbd99f8f1ea02
e94161c3c1a8a405def2e1f834d1a75e
db325365ea434e26804910132fd2df04
b0cf7be6cd37a377b9e369e5feb3e09d
4f596fbd840408e95f4bb676d430d0a5
0b25acd787a022d1f8966ba47064e21d
073ed03c3491ae2a0907e775a772099e
7d84b6a31c74478d07e0466f8959fbbd
fdf904a5a6158d7ade03cf841dd5a636
3eaccdd73c8460423410dfc3383a7788
cf8ce3543aed7d2ee15f08bd9c09b686
f30472ffb7b7650f6c120fa7aa99fb91
a8b5f1037646d58e62a3b527fd78ad41
913a229f7d3adc92ea1f25ab974a8b50
1693e2752822c1d358fb22bcf4d0912f
5b20f17dbda48244a916e08d3ed3d9c5
5a077d7cf4f730b42984d8340164a1ab
406a40cd210c6ac96636cb932996b234
04018b90e1ee2cba280f9aef27170ef4
9852caebf27d1c4d3e33113ca6b62311
0eeb21a42d57409b13113192a065a9d8
02ec6715cc8dc05d387a2329c2f0cac2
cf55939e634b9e9d5e06cb11e7e8d3b8
72f6dedfe8eb10b8e7db1d8b81bcde78
1d83842632ef75567670d875e618b2cc
4d701a5c7463d85765d8c61c5cd6ee1f
9826452f786104ba9381592c6a73025a
11be54a6aa80f60d697f395ee86dc74e
62a8002416381cd90d7baba5948f6e43
dd46b3b4c2ba5ea40e8e562b930e2ddb
5c7b989382cb09a6aa5dca288b37e510
a5b29569b2b1137d63dd6d2956e41475
474183038f9f65a4b0b60a7fd1f73bb1
077f025aebf8f9714b4ff397b83988a8
437baa0f73897b9d03c85cbc66e4594d
01112ecf4dcb8ba86e02f908a7dee3fa
1d61a4bfe339b77ec021e1b9f307611a
c9899e6ef11a18b14dfa34ece23d6470
5ff9bb3f4a5204cb4030d82d018022b1
5823a2206ff8f3b99860d8d077c9e11e
9f91abe60055189f5d292d47ddac9eec
6bfcc0f5d72ef8dcdb1a2c74e1c2678e
c152ba60368d27efdb626877564690b1
df1890cac1cf3f76120cc71945a51a9f
0867ba7bd4b15c061316f1cfcee13653
4899904b1c4fc8acfc14312c9c6a4676
23f9e7cd1af62ae99d2a8ea11a0deed6
290e3eb19c48a868ac0e3b85a4533bd8
92eb7e4a64daa7794562c700c3108967
edc825f80585740a5fdb1895f8cfbe34
925dfe7a921216553f3b92bdf2bdc6f0
7ecd4d3d5fdeb557f746cfe7d951c406
45e20d824cde6063bcc4a5ceef853c53
71ead83ccc8665ddde0124b663316a20
d40bf2c33fac7b51a1ebdf61981b5fc8
b07b01bb43355c464c5f3f69efb8295d
f00fba2b238054e99feec709b48b8703
d9891f5bdb6c8c42895f58311ea56bb9
617aa2553e3e6dd44a797df0cda9798d
2514f3c81ec37d6495825a1fc846149b
63dcd029a0ad9828c2be72ba716667b7
2a9f516d7a89af2a7cd78dfacdfb60c3
d415c713a3e3d5d4d4b8f207df31cf2a
eb63b4940dd451ea9dec043cc94299ef
cc7b5d22d501864bdd172398400a5375
1614a1b7e6f24fc02147691c3398bb00
62e36b51bee51d9a0a8b4acf5b876488
1be52183701bc1f997dc8e73dcba0268
44273c0d5bdf4aec36f858897cee68dd
729d79d642e9b0856dd06dd7192ef78e
7545b761a6fe69d103afa4f539228224
a7ec975159111d5e1a7b390ac979e7c8
0ac01a1f6fe2387974830790ab7ac7d1
7b1c48428dba9c6e8c4644af6ec5ffbb
4399e0c85517f7fe6b092245cbd64e1c
a88692539ca17b1d8e6ceccb320e96cf
3baccc226f54fd6b7d6ae5c9670fcb36
69d6567548a6bc3490d3aa847bec77b5
0119819d5812746836105a0aa21d8cb9
e57804f866a1cb5277fb92be534f393b
52eb2bcd16477a4582aaba08b4a3f043
e5cb32b473b5421eac638d2c753a9da3
969c3be95c136d4207f53b8321e356c1
abca3783d5ba383d7c8acb0189a4831c
076aaa1fd0cea1602c19f6cba25a882b
9d87fba63f3ecddd2c91328a395933e2
e9a9dd272749b6974639d178fd541877
92f083f1bd3c0a5525d2620faffb8699
ff1aa7cc01721c19080cb6c8007abcf0
94085b537dcbafa12a6bd5c47128ce41
9c6708d0702d2fefd755c6afb74babc2
4384f0a96554cf87328e9a97900a445b
c4e28e1a6d141ea8363a7f1092e0fcc3
2e91087cb645848c300558609cf3e40f
3984e3f99d766f41edcc37d6f8ae845e
944db7456506017d187b28f7407c2d01
25526cb716485bd73de9bc49a253b759
4b3429fc1a0206a34a67f4cea54bccdc
ffc4614f3b29f49065618e8fb44b3e14
ca7a3615593fe30cd71b9cf8958495d9
58bd23b8e8620121a1155a29e62e862e
2a5d3fe82ba694be63c6715843d77979
e78c9749ecffc885abb75a580c68b1bb
8bb1a8435846d56f31fb3b824f0f2613
544075eb1dc8d85cb27037fc8630e584
6ad1e75ff5c66f8a088b0e448159cfdc
f3a39a91602e30f1758aa2d71a9d8008
4b5fd97c6807af95b3e0cc9f31b9ce8a
aa8e76432fc3a84081d67a8ebdecdcfe
64531b347ca16a99d3bfda86ad60444b
fb6e9b1823da09cdc8f1c35e452d4039
dfb1a3fc05a50e70ccbe68f9e24729e6
e0bbaa19e3249d3f5057b75c3b74d795
1714336d13771868970fb6a1c3db0e78
c440bb09897b8e41950308d0369b3397
b5a0d3da8842b68434d0a90fbbd7e3cb
19a41a197730a12ec6a96c593b8c4ad3
ef074c3f3b473edf11dee64d3cf2274a
853ccc3922fd540a487de78a829d1393
24f981d5d1f916170eac255881fa19b9
21642212787b3af376d61be2cc4ef852
a5ecf4904aca6ef5b596eb8c4f873711
1956537adb122854a5219ba311970762
ec3cff3f6d71773b8f1dd5a1af1bb350
09ff2982312f20174c4b44b4014e421e
9063f7568a1ce0f488ce100e4a9748ad
da3b6cd5501119f35a914516ee454868
588e25d5d89c24e0074cd0e78854eda3
e7aaf7810f0393471be62c1ff5ace01d
e9712f1e22ffe6b3ed75928de297fbd0
26c887a2a6b0b78c253194da5f1b3a1b
000f995d5ba6a1b8ca7757bfff4740f9
472d1b76296a85fa3170e829ae0e4b2d
fc25242b13b62eaae32f0eeebb938a0c
cfccdbc018de0ba3482e77ae0540a640
bc65e613143b82fdad9e1429192e7438
86545b2fc06bce014bcb7b0e31e96166
3985caa603f22dfcd5c075666d71717a
13ee33dcda5e78b3e01de18073a2c023
72d3f89f5129b125eb764ab85b2c90cf
9db0466500b858e75f77ff7d6b8c1a53
993a606421ef1f175a32790d801511c1
21399cb06624fecd2cd8116c72ca1634
1cb8a35daf41794c70f7622e3ded194b
bb3f5d5e21e4534785b46f1aa595d14f
ac27e6166459c487815fbba56d144291
e79cb47f99a0f0ca308765f6540d5ace
0943e926afabb0d9c88efa226f5645e0
2d5fb1df53b854e7091bb0ee237a3e5b
4de92482ae8f14022b90f94b7703f385
9dfdca05c4ea632b14d696f5832a7bd8
b7f61a2992a2dfcaf938f386e8650566
a9562ec65d1d967b034c4446d2e9b53a
1a9ad69ca63f52f9fd511300f0db6c97
1cf4e3504ee231354dacbff4871e5fe3
12de45f959589b8071a8e89412758e0f
5e97663f84ea905e531b0a8ce380546a
b657b8ba3624d48becbf83956392e5ef
15ec2590746bb8884a9e8daab0405064
e7d10d733dd041df6bef096adfc43b62
c45354f6abfba35e00eb0874cc00b962
a9d099a383f02b017ef8bda4ba5d5d07
dde3823f04e71fceb41b4aad7b463ac4
f594a49d8ab43a1a63bedc0972f928da
c2be184fe58e97367c5884c01369e404
ad58ebdde09f4e7e351cb641c956441b
6d036615157aef9ca28ff1a03a22dc25
e40c49463b5f5dc807aa339cd785838e
91ccee0626299e9128d861854f13394c
fb4799c38178a427f5855d9c5ffe1375
cb6854a602585061db77b38d12e35f32
b18ed4799830d5b75000bbdcd6ce6853
6fc4b2a509334082d7d1df4a0302d635
2e6e7a921c7cfe70fd3db4858f8eec43
3c0b7ecae42423e77c877cd7b983aa67
89650180fcd54cfb7d5116508317aa68
745af35bf3df71f3221f7077ec3bde19
5b9a0a4a5a8c37565f9980158b456eb6
44fda804592c1539174f97b40973aca0
31f4e5ddef9a065231e6ed6ed1f7590e
5cba2b8bc58ee5a906a59b012240bf14
3fb43cb7fc905046d08b52d6c59ba2cb
b9449f7171153b16ffb0cd3ca0d955cd
ceae963b70c4a436c8f05da257d8f838
a05a71321f65f635c8fca0e0f9ed06ef
880843b0f9a5aced916d31fee54cc654
6f15bfb22546706fed7b4ca76fd84dc6
67ceac9152045c0c670b7889e45d22d8
2384ffa3133aaafed5645a4c217b903e
4036f8dd7be394510847638513606d5a
039affc2b5e2cdc4999c5d44417895b1
ea4b19e231b0d9b660fdb09fc204737b
68313e257ff6ff7f0698eb4412a86aab
5c8e771a77fc2bcfb4593d582640a047
1804c3d9eb297475c6cebcb9048ff358
eb499d625076bfa499d32fe502140de8
12a12a2435ca5a352fb53be640a15b7b
03c7110c69eb98203166674d8eee1290
36e76a6c4026a9c1ed558d770f18fdec
59cbb925770050c5f1dc2bad2629eb59
dbe57dbabfff8950b1ae6c9531ccd267
39070d02b6ad707f4f94634af21cfa8e
08eeea7b6e198716bfa5c8da77ee06cf
47dded9544a36db47a6d2e75d738edb1
228bca9cce29df798ed77e84ea5122e7
c39bd104decd70441d625478aab1810e
26ab9cf5e55ef8b91b9d2f3d233ca0b3
451e219cba569ab75b8d1ec616a99e18
e41d0ecf5c85290128036ea249467370
a98506948b013212cc33a032c9e2dd8d
5d1074a3cbe900779f7d9320b23379c4
25434570d3499a80f54ebe664b01476f
f2d67641b8b51cb2cc34fe8288d97bb6
1583566c5a965aef5c0bd259fc760cf0
2fb69f12246e7417012efeb6d2904108
764921722e59e52c7da852740efee9f1
cab572d77a4191e0df59a1eb9b50f031
66c92373d0b3ba9b4d935b074bdfd862
ed0e5bc5f1f6cab7a7678a354c90194b
30569fdc227a631b7d7560dee290b263
7250cd7619d360657461927f13960f8b
c9a017bb3b0661285999013a6c949754
06631d425998a942e8437526f3f205f4
3b052e29c52a32579dff5e6d1c82843e
168dbffe379855404dff12a832077687
8706d146dc823955e9be5d2a110347cf
9b7558df0935075a9b9cf87cfa09f137
9a566cfc3dff512fa4d592d1382c6ab8
733a52ad2ed066e89dd57262490903cf
5991c8e19334f01069914f351937bfe0
e3baa760f67567a70998357e1ae213be
1b6e267a54192c141af16b7d8c040829
25ad947673b724411f6375d4cfb5f480
a4da6a97a00b13c3cce22f13310d1ec6
dfd9e705e21a33c9c7c572a4cc29cc0f
219b44c705a3e655a2d3f83a8ceb96af
12fa241b54507f99c9804000e4087782
0b93f1ca6d8afd2913a4720651461fc3
29ea0f578990f341b575e0921d6444f0
c7d61fca8c895b3a07519a088cce48a4
162e1c16b8e546f275ae620b0cab5036
8169c60407839d8d9f3742c74216974d
acbcb8dd017f2ce92110562b20997c96
9f4eed5ddba9dfdee7e9cf32db9ef1fb
5ab3a369f16131718b76088b887d5beb
2c7c9457f3bc1d38e2d27124c68e7051
6fa0b5d81819b74ceae6f97d71b0baa5
6330dca7b7229ddddad073d8e3646a13
f9668cc382820dd8a98354941bd7bf8d
e52799789bc8c7f41e227facc5f8c173
138dc60e1a95513129408acdb402147a
96d62db0b2e237d996791719a94f2bf0
d5712297333dc328391ef57ea0c44e0a
60d83414e7d4494799535b997c2ad1d4
95ab36c28ea3bc496afc53d696e2ffe8
963afcd19cbe8a1d3b4ef3c029cff6c4
79b57b57961ec0a973c36e546b001276
4a55ec42eb868fcfed0a567243511410
e82cf4b8d447315d381ef48ecd623741
fcbf36d84cb5fc4ab7b8b14a952f972f
c0d9d5ab69fa20477a3ee68bec175add
81ad1e4753a1884cef9306cc6ac9473b
ead46a17e7cd6fd4bd29730bec64937f
71c72e578afad927987906206725c4a4
d56e206afbbd38e99b4504f0a78786a0
688f97f6c14b6b215e2e6046a0034f19
6aa92797563c03b2810dd9cb01dfed23
817200742ed7132b1094d90cf015bff2
bc86a41c039a42839c2d4e4db9ca9f53
2eff472e1d9b049fc330fe8c499c6c4c
91f85af8f3b611d8ebe0e85aafc4f764
34fd386e43759f0e33003330562dc12f
183bbd4f5de8da325dcbc05dd3f53749
36c93f936372bcd241388ca0ef981c02
4654e837e982feaa039c1d700f9d7440
41c9634d7b8541748596edf3f496a1be
353e53fa7781ae702de45e4370c1cb38
b5fb9e10f9dfd1000e26d9b92b2bf480
f569b3ddbad4b868a1a6aabe30210e1b
59904d4caf672c8963ca78c619023c21
0e55792b69bcb9ece0be64cde80784e5
6069088e8cb691c5c0f41d81e5e95989
e6b3c9a000e32532f8332ad206be35df
90aac0ad79e31051e31602b41960e61a
4bd8790949f01408ee2697b01b6e5595
64cd572298b75f8ff780b084ead47cee
c3e4d058ee74cd3f258edbd105518559
746c22a2112cc1d33184e1ae9300acb5
4655e9eeaa882d7eb43fa0a09fb263e0
4f6eef7bc776ead1d0671faf6854f3ea
29945f3a466c5b636b73efd9776a34bf
b3de28252ea9e3cf81247cc263d94109
7263dccad54750ee14cd23be1d949bf5
5342a214b2666a08a8af05d563f08d83
e1808d064586320a3f42ce75732e7f84
29f453930c39a5444a24cb1575cf59ed
59900ec207f3150138ee0d561f2f89fa
5295331e489987954e2147afee47121e
f665c130d74379d710be1bf5122fa84f
4ab08ee51882a29a2db9abf4d6b262cb
e8e7541f5dc7137e210b405a44fe3a5a
c81316b718cc402842052e2d1c955f6f
cb541efeafd2e09b6c3522fd2e20a3fd
c0c518d4ee50299f09427143ceed7b55
77f7528bda4b2069d6c5221e5dac0adb
72cddd5a96fb8199210fd04207cad6ba
c605a76e32df81d5417b8aa1aded31c6
7a240b739e069ca314742abe199a3c7d
9cdb104dda2a697332477302f5a59336
03a20eb1cc7a274b5f2e8db2cb8de22b
ce7d75af224f89a5625f958123a0272e
d01848ceab229b85d5846a3a5dba5fe6
64a28c6004685ba618beedc3308a7557
61bca46124cb8d9ee2b62fb0964aa8f6
ee128f506e5a5fb3bae59af75e59dda4
87f39352a035b4611dddc389652b27e8
0f8204fc36b3e8b51ad2c0f001cd3b96
6e61e8eafc0c79fc4907f560e2d59651
1887462792b573a804a46c7131e95905
fdd42f2e981f122c5c02e0e3240c064a
9c93068d1da4763ff3ffe6155abc5868
52fedae709af17af16d26f8b6de438e2
3151452148f5d034e6dce7b9df83b1dd
209b75ef45f4a6a1e1825dc38dbbcefe
74437815922a0c36ac3f30a37415d111
9c9b0c5d74a956eed1ce0bdd3635fc55
78ea82c46b16bef624c8051dc76eacb6
da69a57073cbec5288aa0e2ae478f6d8
5eb2740ef91698a426373151f4755c77
9f61de252a806c191b51cf7ae23ba115
fe86ecd22e060e8b16477ef332969a0d
c379258e15743220f53fba871a89bbfa
c3dffd3b24b5b76b3dea3d66f81faafd
4b185c4de4a47e8cabf006338ed47567
fc563178feff80bef85a31e3459eb1b7
d969cd81e92556919b9520052d6db6f5
98c7ee4e2906159f6769e24bca0734f0
915d0dd9d9cd9969bc7d8540c315c514
bb5cd77fdd7d43e11e57fb7282437a9c
84f0045529b4cb75fca66e771328f893
33abac30538e31d6c7992e739e8845c8
db6a97282c24e712dd38882d84f3aecc
605712b77db06f555b9e64cb80a1b9f0
314983baaeb42f67932956abd8463673
cb094bacc5dc3be0e92c984bba62ce30
d92304c096b833f7188be37ec7e4f574
6cc3dbfe328d1afa89797b9318e20033
9bb60429384ba3f4404d9fc364fb7475
6e11724fd2873fb50a6d0bcba249ea60
b6e0969e518fe0a8e59c54f9230a1d59
acea4af2ff271a32fe1ff0d28f463e6e
40be0758c106e99a8dc70a0e3937be9b
eb2b45dd4a0e46b3ffe051f0471fdc5c
0e790529f9301b1d3c8c1d5d49d93018
221ee529ec57657df40a16969734ff00
0828ee5c54f10ae1aaff2d7f23d1724b
ddac78352a1971dc49d1f98e44a58b82
266a2e63bc6dc487a4c1b78e2234dc92
cc1198183693cae64178d6a38bd2168d
1cd694e3c6b71f0f730de4b0359a0dbb
d5ecd20bce26171f47f2a395613d3623
5082ad4f338dfafc0074912fb7de045b
b94b8ea013210a13bd563f10460f6118
f2dcdd57205df4ee890795547ce8f00c
7cdb936ab66f5b68cb3c165ab71a59cc
83fa862d95ad998c4987db7d3e8b10f8
52b9bde25c1a8f3df5929ae16cbadd38
d3533b1f447b3e47d96a810f660d738a
dc2e199947d1f99c628ad9ec72acbec9
722dcb135f7184a5f31a08a59875e57a
66994b1fec3c813ce32e00220ed09d0c
7fab078b953f15b36e057e58b24229f4
296d35d5e7d261e3da3275eaa0039176
15537cb249da055aef826deddc6716cd
6e476ea40069ad54a83758cd1eda80db
f9a646c4f3c5d94e8a6d4af028e8bef5
570fc18aedfc592938fe18574732510a
f4c988c53fe2de98cc925415c1bd2b1b
a8347cc32ed359055174d198a73007a9
282a1852770c1fcbc836e29235be9e71
947033fe8487bfb703a623b430a20d40
249ae6c5e06b33b727f33ecb257fc7b7
74c26918035f6d04173f162e4eec07f2
cfcbfa6c1ad9d0d502a717140b253fd4
3b053fe5c761587e919a335d7cd079e2
5c8763281c26dbca5edbebc52892c28e
ed704c941d887bb194134caaadcf580e
1dd945f265dd56a8b660ab24e49319d5
789e0d69d5208359e80c3d5ed626a15f
2d3b6b18f2e8874d0583044389fb3051
834f6458740e29ff9efb57c3d5acdecc
939a3adef9da11cc98db4ddae607cc1d
30d0cd21bfa0dc8e93b7dec6ada69def
7ebfecf96bebbb9d0ccf74299218e52c
d30914a8556ab32d864de7e032da00b9
8e164db1294836fe0e3f0c7cf6f3dfcf
dbafbdbd4902bc00cab12fe2c5b7f2f1
49266659bd1192d78c7738fc3f53cb4e
41ee1c68e7e1f092c288d5613ed63090
3d258af08dc13f290529bda9c5671173
e113dad7b40194433f071cdb4847ed47
ecd8f4b48e463dca9774bff2c1f65c3c
2c288ebab5220e382f949da1926ff03f
951a00ef5d39b968778291a0f71ffcb9
50a494e85f409cb61281a8b3e2854e35
be9c3e0152d8928069b14052afc21c8f
243534b74270de80a08a1b06983d18f3
56e390a2dc6eb37903c05b5c82f577ed
3d508d795f04f8de19eb8cca92cf8947
b08554c8563959e5323b804c6bbcefc7
4b158c11e3702faeaae584cf2efcea9e
1911d48e5fd7c6e994864ef920470b12
a104af987a6a92ed394941eac38a324b
a839a2efd8d651bc6cd6f4216d590727
0dd2e4393faf97967faeac4aa409d0ab
ec101104e30632dd1b58038de57d91ad
ec6897a0800e2c52cebc6c2d377160a0
854e63812d18a2c656ad0dcd10862c8c
afb20106788c68b9f6a2fe13a5fe5234
1ed5616e00e6c0897af06bb849272103
ddcffcfc78a8098646c55a3d36faf03c
d792e10870e2551f440d6c4b500f7c5c
4dc2639eaf6d103ac7defb3cdccb558c
37e6a0973fcb0ca43f7710384e96e919
b60a1eedcfaedd25524a8354d3eded3d
0bfec0cead692ea1de0bfb48fb9a87ed
d1c6d4af5acde4883037677293dd7b72
e3e16854df750002998955e6bb8ba92a
db2c50e96315be766bf8605db970a66f
2669a8e9b4d8946b5b45de2f7ea76714
7e1c14b81cea550a6bbd20635f32dd13
9d83e32ef5ac7a23d84ac72713554b15
37bfc40f9dc9d0c6c1ed380b829d4d60
f2dd3760a9389337e2ce91f46302225e
818ba836580c044f54aa63d054dc1e1e
dafd8aa2b9eaaaf653f03903a1270a32
05913cc5c1f828ea7ed261365fa593ab
4fd26128bbe324aa623cd9cdf121e09f
b175d799c0d16332b0cf6aecaee3fbc8
29b550da74c3f75be4b4593c41fbbc07
a1fe2b47266d698da06270099dbc5673
01920574ad50b51a2117c79405b2cbdf
ff3e017665ed9b0a8bde39458fa3f575
131a51741c8ceb940a56b59e48958d29
aba2ca1d39313975007d0a57377c763f
0d7171e7ad21f3cbbce1f52a786d875c
6bf71218d0cfb9dceba9833455c92248
2530a3b73878fb71a15bf9d8dbbe8f66
4d57e8218c572e280bbf323afd3cea6a
96c829b0062f472d206466eba34e7cd7
6a7eaa2ea80475cb6b1e934fc795d94e
9348e19c8e68dfbbcec644bf0d97c81b
721806bc0941787415c7d89acacd4f03
6f644753b66933a4024633edcb12b667
742e6f5e5ea2801002c75cd7b68ff52a
0bbdd1e7f9a18b665beb5c27e5597129
7aa24dada832a2f7c9e5e37a8c82866a
c72ee16587d59207f79153b1deec24ba
40bf0067fed7bfa366af04cab958da03
e06c6b7416fd9487970eba29e298465e
3acaec0e78962e6932e718918e7b3e78
e8bb926d2131ca7db8fefed55ec0578a
4810a63919ae2b2304cb15dd8415586e
9d96a788ad34019b66fc46ef84ad8c1b
e5817aea1ce383cba0bfa86631198fbb
085489102251ec3a8fe5d66694a26b1f
ef4d6764b5033694ba5305b11d14fc2a
a77e0a028144ff4d6bec06b50fa50947
9775dfd487548647b6174af3ccf567a3
341d9e34949c573290174d758b9c4308
f68275f37c6a32970b63c94a78220ba2
11933e8d80becb875e1391c17861385c
810131867aa34311f292b1422280fe4a
7e9618d0bc4353dc68c3a0e0dd9060af
68da0519b5c3b9f2d0dc2c9a7147538d
0019a1b26c9b652760942fe3b85c88e5
3b2ec0fd471538e6488a2fc795df7ff5
97c70666a0914998622a59ce17528c34
d4d6e07e77785a97f84e5e70e7389fbe
bf6f978ae806e4ec5aad3fca3bc672a1
b110d2adb27e3e04de1aa18ef3d15dd3
01b277a617f57b596d0b4af7a0ec720f
fb5ad99c9b09757e148d88c803592058
52051575e0f33a10482d9ae3b7faaf9c
31eaf8e6bc1f213d2e9d6f6fbc7c0774
9fe0a7227643de0f7b3cfe8aa32b3e87
8a3621b67fdebdf11fbb6c2d55496fb2
46e7e641436e3f10e8a099aee7680f5f
94414fffd01c5c1823ac0121982931da
e0a5a4ed851a41c284a1ea1937f3bbf7
80888bf3aa37b6af9cf2dcfc67490893
57119412e1e0bae625d4ff81662007b1
b273aeb0e713e96586ce515031c9255c
854ef97c3a67cc47e0702c383aa90d9f
89f87c4e6f11260cdd6029c1c7930386
15cc36f49bc6fa1c00e7ab0c1d633eaa
95d0ad104338c41728f0b777d35563b9
36ac34d463116925d78d5318efbbfd1d
6a9f6c19f728ab8b3bc9b638b2a915c0
cbaa609053192bbd8a47852a1b8571db
1022668886de8c303bd9a6b1c2ad19e0
e8f88a7fceb392589bc89736946b2003
be01919b7473bf87d7291181bc5436fb
f77530465ed8a00af621f841e26659f6
b9ef192a908433636a8ef07dd5320492
9a30d067b55675fc01d2eb6ba1ec279b
315656944ba46da2236f7346de090694
10fb9ac205fc261b58aedeed684207c4
a62a137e5f06a1dd95d64d8315ad4df1
4763ec1261eaa6f7273c64b915a9056f
f8ea0c81588f9285062e31701bc1fa25
7ce9db5aa8c5ffcffe0e1ddc75a427b8
00bd4940ff2327e9b21837da1010ae67
1f07d44ec402e034eee6502998ce43e4
75fb60b940718b451d90d4172085bd17
10fb3a690be69f93b18290c17d14ba59
41d186a28cdb8727357d99d2819bcc07
45298d56d6552904ed5e16acd7f1a24e
320527d41bd301f875165226e8c8a103
3abd1e1f1e4ea32ce4e370004d7ac81e
de2dc2c191a5f8c43b7c8a5f7b0dbfd8
19ed9ff67645aedecb668c97ce7bf4db
b4a8b460d7a0f846966f4d947e97d6aa
2b7f894df930b9c911d5dbeebeaafb06
5c9c7bb9c970320b2c3b2bc3d5e81ea5
6916d794a83f5a21c89a9867cb64cb30
936f526b9e44a7a984142f3529298e39
357573dc28269ba5ac7fd7d4637306eb
9deb1c9006f27630d2e3a693492a2ddd
82993b9cbe9c2e9e4d7b4f3b41d093b8
3939cdd292c142d5a848605b27ea7ee3
e906cc3288fb289d59470a9a2882e31c
93f9922983fd05e95e854c8c5238c723
7a0ef3553717cb6d346b69329679550e
2e4bc525a96f34c08943c692cd8feb74
c569823974b09f34c1f967d2ec59258b
38f724a78693c738b2e0dc4acfff9136
5531868b4af0dd7e8d7a0e51ae43b4a4
b743136eb89d5a38c49f1061b9e6df92
efb5d41c8909b3e5397cbf22cac24dad
3a37840b1f71d30e496e54be30457e9f
aa816736dacc1f479d84684e1a17f53e
ffd2a394b3b8ac3201a1b32587e4e1b4
0a356472f4bdc38a36d8c56c47d812d5
961ac3c370dbdb7b503850342d9eac06
83b621e499c0444d88e216d9ce19bbb3
6081915dfbdc6117e6a3d11f0571a0b0
f435deed7610f0804007bdfdcc6be079
442ccccf29eb7dd07eaf8dc5464703dd
78c1bfc840b4d732ca8a14ce3c9c36f9
946b641da08543db3658cb93c85d3c02
ff312235ecb8a28bf95e03b606b02742
6ef89f29175ea2083c92027feb91cfaa
230c037ee5fd1827c4e928a6dad68177
bfd6d3767c680ed1322dc4e985bb1f59
fcd443b86a3c3006b1a457532e33f65e
e80c8b9aacc6d55c729a6eec350afbd5
5afea32528a01e97b95598118657d048
bb4eeb937dc743b64b06ac214dcdfed0
de1d6f2524150a187a4ff454e848f10d
9c26972cdbad15367549dd5aad401ae5
0a6b2a37522677cafb7ee1bb07dec2ed
1df74ed60eb44704e15e9a70ae948ffb
8a6ddb1cfd6f216900108449c222cc73
d4fe4705a7f17da6cb87f168d6580517
dfce581e6f46a66d16f865453c50d03b
3319dddd193395bc33df1a00b09d4e6a
81f728af34e9ed758799e461f7e0e9c4
9067465d714ecab07e520e53453eb7bc
9a8abfb3442339a4e5280eeb103d8d56
70c994c71e6206aad8b828d0ef9ead22
12b9ae2360fc6ed0c3fca33b1aab751f
0c4f184edb7bc9998de12200f7c1be51
3129a2cfa52dee7e43af5c55de2d5241
b2a367645d2d47e4a1eb49061ffed6ac
80b84c087b952a209df3889a03054438
903d4488e2035a6c57d8b9a886ee02f4
37f316d583a1573e0b96fe7c62c2cdeb
ea3ca60e55ee35b18611c30598702d32
d55f41f1379855dcf5c0a3f40e831513
68436f2767c934f8c9e572bbd9776abf
5e645962dd0460436395be7515f24f8d
e3044387b7be393b1422d076e1086c7d
f0528561c4a29f536ce342e9de5abc9d
c4e6967d8db7d23417028808fd63376c
9b1fe24d7218ae321a53d38cba746f86
37d7c0301aa7772a0d489b4e823c4a2e
0b97306aa079ac194c96b4a3f4ca4b68
94cfae27866a65b4733bb7eeafd827e3
15459c9e0f23b3922a5080e653712c29
3c82e31d519459974c5d3d28e39d3e8c
89eb68acdfeb2fc5c0a97384182bfc36
82e99e5de6f949920ec54f78ad5ea603
7598b7c1f366f72b00420fb3e7c3bcd3
aa353294c8c7e722e296b541bce25d49
85e741606602d6025f5b39777937ed03
673308950d2ae9d1d78f69355b862fe2
174f13b1e48bed9b811968f5b0ba45d9
e4273470d500e16568fecc1ab8d4ac90
532e148c26dcac7e25e96752f4f952ae
89405eb8715e844f1cb6c357bba43cae
24d06af774c9de759d560325f1a220f6
2d08582de2d536c421230bd840ec0503
4b23b5d64e0f3d834e53cdeafd22d74a
81b82215706f58dd8038f44ec89d28bd
6006e602bcca7eff65c5ae1c207adf38
c85bf7254fd8a444d6f99d4cbd41e6cc
4bb3107726403644274ee333e890e487
982402a403395c8f14a73ea5a41e1bd6
2ae09acc73e7027cc93e4028d0544db8
5b7ef24513ef9e63527287f5a430d2b3
8b5826a8aa0f51ddff168bed3e22f328
1648ceb46fc4d4261b6c49fee7fe7c92
8b48ab717dff695aa009f7520dd34587
e19ca9fd0f0877e6e69a018752a75c98
cd31ff0cc2a39286d8d6c23413451cff
9c7d4b88ce223e03311496587268755f
8f75626a6bb0ae68fff012d5d0206310
e25394077450123866d13d2094ad32a3
a09c90868d3e9c8e9955fc6cd6ba80b5
92ab82dcdbb9737a251455c6714e962c
4141d66871aa6f980ee3d5ce40af4580
da75e346a32ae46a124929e386612db1
956849c8090ca94aa6e05e9c4a29c455
06acfdb464b3534edab38aad3127a56c
786400914c549bb9bf1592a03f46bb24
43f58e19f315df0873a2688925bb0d5c
0ac652bd0d4a6289e96072cb3179120f
00f936bed3f7b837eb1fc5eccd99b1f3
206fb54ba4a604fb89d389ff5a122f13
f71e79fc727ea9e5ccc43a80bd310649
1373bc22c7df37e94819a0d0f65c0438
4c5c9aa9251839a309175e27bb50e412
c54b78e59f26b5cb03c8294b3242e31f
43a929dc34ca240f45d3a17d8125b54e
2b850c42c017ec8fe1cb96d7ad920093
b695f6b63bcd0ecab453a47986341b96
18071b7069ac141dcbb89c2e48d32246
e92e89bd603dc73ef913865ec38eef56
f0ec44d3e14cead63422e5b5d971a9cd
cce008f1b7f907c838311d996224e3ff
4bb74806c27dfc254fb9b0073912d1e0
09d5fa9aaa46a5c502fba828df1d6e22
e418b9dff9e1a0d2f14b25d18553bbeb
8746b92a247191ff07df270f11afef70
b4e2369af0923bf801e4dec2104d2a73
a603671320e29e53116c5f4ac3fdf789
852dc792977205d81cc689746597a6f0
d912f58b7d5492beea19b337cb3d05a9
04a476bd7970f6eb66aaaef9ad08d5af
7d00318389b5eb8b87ad6580d2fa1b86
d601c95bbd53d2231b339aa84340ef38
f42421678840da82d2e64307146d8343
6a4a1adc1b6a270f19a5887a3d7d52d1
a70e9f320207bc0ef9b97b4d61f0f1a7
186d0f8387c538451bc5111b057c7363
0241f3cb4ecfadc85a81f013a535be92
5644b326d13bd2a652b8dc22497112c5
ca4785d70059454532e1a04bac2020b8
f0d225cdd27ebeaf496edbf08e613a82
99c5305e4ebca45657a7b7bb2aaf08ab
373f4ef70647f87e90914cb24c44ede8
08bb8840967c537e34b2234e714dd3ff
2a419ce85bd8ca5d78d7e603e07357b0
c018617dfff6f1249a7adaa595c47d00
bc44c3fcdec1e5ede613d70983db09a9
a0870ed3ab36e9bf980bfbfdd8b599f5
c38807b265c5b3e46aa34d612c601569
b4b720c7d74d9bef9839b4df10504843
c2f13405033bf1bdf191a67f4917389e
6e677befa8662fe95e76e63ce8df4212
6b071c66cb9c0821185316713572020f
8654ac5dcef85edb60c243788228ec08
dfacbb59aefd325ea9a35b2bb8f8752f
60385ed96cbec74d5a4835df32a7bb1c
a2a4438e838786c5335d95678fd633a7
c032a12fbf3b1f30b239815d5697b8c2
2f7555c0760393c687a9c7de6bb0d2d1
42c4080c709f409cc1e1724f7a2a1a7a
3f9d981751d4879dfa862ed321047a04
a9ee60ae56135e7fc3f78fcb3baa771a
e35267797393af1d17930444aa8d7516
ccd1a3a6c2f2c367ec043015f163eeff
fdf30a87ced47f4d7718324734bcc7ec
a67a5bb035e0c9ae03bfc94212f20b61
de361964c7805f21f7ab665a1e8c0218
93ba928583caaeb39836078eaa65fabc
6d64a2e8bb2db7a7e009a095c2e02740
b3408690f2bebb275cf3ee93ecfa0653
1f1e31c8ad86bf2658508f36f5d1dccb
8f1d9a54c8f273340263fdad9d379092
7046c8b0ad2d2f8bfa1ebbb5e05596ee
c95e92ff6ab77d0217b982d5590b3d08
36ecb2bd62f0b931256d38f62fe2565d
c36620947061f2ef00c237ddd096f287
f360f10cd2a70570f5748090d2a3397f
f96f18288f0abf5e76db2bab95129a7b
f726f730fd52c6f9689322e810c40bc2
b75e3d4c0f09b5ae51077f55767d4a2a
22dad665f9bab59b355eb858ab7ff034
b40e669720e61e4de146bf7fd0114d98
a6e0c9a621d890f9e1515ef5a8bab3e1
25abaf0992f910181d6121c4dfe985e1
7e28da36885e76d7d3da26f6263b59be
868e7f28aa0ce985f0dbf01b363bd04a
fae666e626a83dd3241eca9233cca9f7
91f23af6d45d0bc73ba92dbbf26cc5a4
2e266149e7813a66fa848b8168a09d9c
528a31f5b75b2315dc7f9eebcff4f235
1c2d3faf27a78b56068933f0904de58d
785b5d3a281b91a11fca6e91ae3d3451
c43e521d331cd85503316511df865294
ce44ee7c3692a9168f27bccfd3d686a0
71eea25d54c925c18cdf7241ca14c039
fea7347ea31ccd1eee07637597f0ba83
08aa6ef5662c7eb8c4c5445b12ed9783
f51fb04e3ba52bbb1d201e618d9d1465
d1b86145ad6d47c0bf7eba6065016bdb
de1a192ddd2e55283591e1b6133142e8
f78db764d29c785a05a961910f84013e
0017a15f1e0a0484b3bb61ecf4ae16c2
e1ac3eb3defce3bac80eeb4c9ee868d1
7cb73a5d23bab1c6b58b02eef2c80175
7cd3325f3f8d636e40686d297f29f45c
98ab3c784ecd454572a68fbcdbcfe7ef
de084b263adfb6b272828a39e6738049
1fdf2799a19e48d319015c90de437af0
61061cd489b8c5b145918a29d4a829a8
a9635d0f8c39b9eb0fe452230bd3b18a
ca7764a3ce6c3d190654c71c0110ca5b
260cbe9d601a4d8c5420d863c20577e2
b2aef09fb14a25e7abb60662d8c719ea
ec9a84ea1f8fb9293a732902e6dc7cc1
ac60010a6150611afdd7661466801a39
3e06eb8d0f9bc0d2f9aa08633b887c14
30208bd8cec5eccf51c4f26205d39fd2
8f0bdc90075ebd8c833bd3ae2a3e2d3f
4157f73cd124fe28df7a9d9bd65a78dc
17b0f10858539224fed0e5192a7ba181
ac0012fd9df2d5d1cbd7f53c18cbea18
2d04b5846fd702cf7586c10621619448
e1d8fb43c606ed095b0fd8d26d09291d
d6d35f61cdb34bdf55b94729914191d1
ffe4ad32a1b6cd8227fdb21585d757ac
f715d008b58a26fa30a9ec43f10d991f
c462d85bd634f90971fc27f69aeded9f
cf00ff25300666042fcd35b0cbd55f29
4c827f88086187ab6e4175d10274ac04
60dbe9482a46cbefb9df14ccef14099c
95ac6a4837c55f4bf2ce987e844ba83e
1c78c27d67a61a51848739caa3c684e0
c8e153c1132a1c80535ffe87b17c3047
af461bd05020a433d2238eb2ea311384
3329e771b1003344a62abbe7e3b93eb8
7eea630dc9350f38c7645bc01a193eae
f3493a6d0c9ddd8420057074a60d6b5b
1ac6ec301b0bb02d4f7cb9ee071e6536
b56de3292ea0e5a759fc8919d7beb073
9be01189aeb926b81c376acd748d7436
5a0ba7c2c0fa7309df6b74050cdfec21
2bb0f6926d89dce4399be8bbf3723d23
b49a7a2f0a4ab94b33804da7c01165a5
34b019367fd03c8cdce1ef93c0be7412
f94c9bc8b6bd151f3df9ef0add0156bc
a30ab8f051ec85a147a050d9d0d22dab
f6e8abe1de77f8a128a6ed28468a6cb4
a62f1695227e3b709bc45fa6f0f25128
c1a159149a7e90f9b1464a1bdd7353f8
10d6227be625896fb0e74c91b1d5035d
3b16abefb3f1e2e66b494b0ace5252b1
ed70cf4af6b3a89ac8351b789673e8b4
1355dd4face3b9ad3e44fddb6b0aceaf
4521f2e9c24810e1d6d3baf76843d95d
e8f59b0095491ec1b6c4eb08d6554ad7
baf1cf49be2de1432e784e8dedb6bd77
afcade06d5de94249f6f173092040770
abca1dec812ffd3563211c292714467c
bc40b91657ac839632f938f8a7ac157f
6e43fdca3bc1bc51861ca87698cec005
44fb72ce4a4a0f28da65d7be84cd45f7
960253e6c0788b7c4f5d29cf2a0ae29a
96868ce6f087224425108368e33a1b56
bc754447e4cb2d8c236ca28f7853dc0b
82b3c75fd6be432a842f8d237e707d39
5c59e4f20bcd58dec81ddbf008953f05
9b175ec75aedca8ac19f66797448a9ff
413e874ebde6cdf51b3e7b0ab35d813b
db738fa654f1b330c1512eddae3073f6
382b0c6626db5a53e8cd005614d8cc60
9bdaec705cffd58a155251dc9c02f2ba
4155f09d7938c32e7d91ac8dc212354f
d7f7ef29193e875e797ef058f60e68bd
a3275e32007fb0d224e12c61bd61f341
5ade02ef26d11d9d3366c5087ee5f1e8
a2a3092736f393e9d114cdfeebcf5ad8
cbff330c2e7e723777ed0c3cc3a56241
bab8b81f1f4aee10e6b02fe706f8b740
fc22e786aa93e519a695667b60a7c59c
f3e56b7bd2e77c260dcfbe7a1674f537
a8f473311b41d9190f6f87c31796c69f
1c74303b3fc71562807928276709795d
6178276722f35a479369abd85dfa701e
1c1fab7cccbf053d268028a6677233c5
038aa6693577125bed763cc2b82aee42
79b45705e4138e2667f744600eddd78c
dad71aa62e38c966fd603bce61fb119b
9c7ca4d264e104f6474213e8aed570ad
87d0b2bbb2818c483dbfc40c447084cc
5238bc1dbf435f0e39892241ec614642
5ced98946e005c06c3b737b91544e421
fabf6a5267445757f12af58bdd9bc870
145c314e32d97ea5f16098b98fd580ed
25436fcab6e33baa6729740d8084452b
80af0fb2b2a2077fa92c2ff855bed2be
a2d7aac6b7811d1aa36b086c557b5f9e
1943fe767798f8d747424c8c3e44668d
23b9d4d7e0e364b61764cff03c17e240
d1318011bacbbe04a358dbf59641b704
08e4196c8f69bb97a8d950d06c2fb467
1ffc2d1fae33cce9ad3bf68361cd13c4
4100ce4250812114e97a2006c7b8a9d0
eeb6598fa4fee7dfc541fa7ec9ca2945
638955538219b16f4a650953787fff38
0e09651524ff00c17248e5943906545b
3c2920e5960eabf1f36c556d9648b2d9
d3083c31eb12b63597d8b8915a8f9368
cac77da45330fff2bdb02422c7f3a847
3db7cf86995cbc3988a0279cc43642cd
ac566e575ba26091618f720d6640a8bd
91d517a79704d0479e8a784ae8cfea85
b1cb34f033a95751e910ebca6f550350
ced86051aed4166c972eb167175e9982
1d78843c7442b0072a4aa40fa0bd0956
9631fd3002fb79f002c3ee7961cb82a2
bbbce9766bc8628eb81d63c3511e1114
3ac92bb3986c878e699ed4f1eead5f8b
5f4968562f5455531df93792325c2f87
7d46236138c75550846ac5fa09aff3b5
4678fe161ce063da120c5a8fb8c69680
9e68e752b0115b79a28308d4b65b3e51
5f2f353cda54433073c861a64bbc43d7
d374350de917c84b40f5fbb59a615b54
d81af20750742c560c050ac8f30dc27b
f6c1d00de520b028aaffdf3b3e5e393c
6bae2e7292c503e441af4202be0b7665
eab2fe8fc645c82ba7e863dfc5316327
162150806bdae4a8e2b7bed2f68517be
caa93145afc70503670e8ffcdc78326e
2a9d01014a3ff250bb314a68d933c1c1
9c08e7bba05b3826e368d086429f960c
1a8cc2049dc6e0c18446fd9757b08dc7
5f133dc9da2f1a633b122745ab2e6a16
5bfff030034acaae17e6a2b15c1bb732
46d228c1eec601d2c1a0876b5aff0073
57e2130458cdf1716163eedf12f438a2
e05bc9e12f476792067b43990dfcae96
8ef798aa21c6469da38f3cb6f9d66583
703f86b82302af60315b58d94cb4413b
e6a8dcd8a42252906b8d5cd579ddc1fa
01febadbb66df8fb88093eb5c7113737
bdf50b68ae5a55fe59c16ad8afe283c8
af6e0a71935f80386ee880ee47dea3f9
2b06bd22cd489aae2a89af664b32950c
bafb82a27e2e775f89706ee1e468acca
da32af2c406de1dcbf0cf2c9320c7b07
2c71559e5988eec85a0ce5f20f042592
e077b48a7b6ea2da46c72078f23b293b
051b7c7459669418fc850766eb4ebb9d
9c13196be7bcae43459a93768725fee1
1037c109078ac093dd31b96d284a190d
4f2f67901f5cccad689a470d9df2b3fe
8715f24e329bf0c7b346636c810bf19d
80c5e4950067077be08c561f3742e859
16834afc1a763c4c4ca3dcc8f851e6dc
01f6884b00c7af6e1272e518619bc5d9
354a49a2e6f3d7400a71a025a4729c28
10691144c5e3c739d2a99f685021c750
18ca13fdf4e56906ac3e3c0fe7a25d43
3640ffc7f3962a366d0287fd6a85cfbd
c500327c18c1197feeefe75ef4446569
96cc7f8fc70f89559610086f355d214c
ce12721c4091c272111d746ea132a709
64b27cde17c89a2af911e98c256ec298
86834c8f04b0c0ecbf968367657a6f8f
a744d862da29b8985481e870b382ed98
46404c81cbad3205d1438a72d8fde60b
6b2034359079fb030203c7275ebc4adc
cb2a82e5c000e87aecb0f1b02529b918
ae9c46d757258079029f78f377dedc10
8d7a531396198f5d949b19d64784dc1c
523c8e8481d2b02128a783fa45e350dc
1580e8297191ebe44c2957734ef41706
82e27a05d6d8e165dc7dfc3b15319ed0
c7a64728c260025fdbd3689e893c14ea
bc5ceecfcedbca364694ac699f7c6189
c9d6aefcf18e790e175d076e239bb0a0
4c484e8291ea9b79fc0a27b6391e16bd
79d3317c8018a29d3f6e630bf450dcba
6b635273dffab203068b139f71189c7b
a092200717446c2e3ea7aa794b041022
9c7a72ade6454e25e916b4386b4f7e56
896c3aa5e7be38bdc1f848210b019436
a92590a90ffc90c36e2fd69752037c92
e70f632ad528148de211596f67871ad7
cbcd2e71d96bce43a8718fb697f75f46
8c4228e95922d1782027b865a86a6b4d
2b0986fb4eeaa6e5130ec6e0e28d4338
f3404a083d92283f84bb55481249944b
d6f94c08dd4b3f17f2ac1300fc36f9cf
8791a74cb9e5a8745e07502500997fda
716717bbdad71f344b9636823d4d592b
86702de4fe62585fe7a120d1de627098
31022f5c76ab4a8bea7bab682a742ea6
23b3f38f36cff60e944792f9763ebcde
b2e8739bf7222ea18889af5e6ccfd134
b7396e3eba63f8d49897136d3f1ddaec
c4bd2dbf24ddad59d582f40c09c1d68f
dcf190cd4a5876695a43842f41329e44
96a9d9491f5b1287bdf2119da558b26d
8bf6dc3f65e6d682536afe7e7b93b7e7
29e8c617c143ff786a2267b036fabe44
f06e73f4347ed2b6a85f6217647acccf
8888572f4cd048c81493882982f676c6
a013f1ce27a245716ecf9b140a81f129
f2abcbc143efaac09e5735d2e7c1d909
b6d3fcf1e5025fdf472176a9a49121ee
18efe24e2b54a6970d11381b4ba52543
4497f74006a228102845ec46ebd8e0f5
5d0989ad49fd18d48eb9de3148eae70b
43cce6b3e9d817193a689b2926fef78f
56d87f3093db7174b96e126e3f94579d
c00bc70b4912f65e4d406c5cf06eb79c
9f38b01709b9e6da7584d2e700ddcdc6
b62a22c6a6c06f2f36787451c7829f02
6395cb2781e30f837ec935ab6a5142f0
fb769498d8c339de5a36bda008fcff7d
8a61be74705af2e8b0ff9a4af59c5149
299649b7e8c0c7703f39e83e53cff45e
6267aec3c737eb44a6ed34c997cf6704
de416af4f6f618f36d7181bbc863efdb
65efd46cc2eb4dc0490c9a9bb28b03b4
455d7d654494d5cf3c7de0fca10d11b2
e258455042641c47d06d55f8fdfed21d
b465455589b1f1d65c44cc5ae5169d65
0cd464715d1a6b693e1b26fc2610ff4b
b8b85e343ec8d1148dda94db62606953
460afe8156a1459ac41bbbebc70b26b8
cb1eeaafe59915e2e5e7697c54bdaf86
08c552de8be88455f117f0b81b393075
be22f60ce19549b19b15e2c380b35eaa
088783840a5257de44e92cbbe2a70d60
b19c4f5a907911b56265bbeb2ebff102
e0c8f8ae360b128a3db0e8f109715f90
11f70effd7777197e72c5201972e7bd1
dfb0bb7981fd6001ba0b2a6176f77189
734e07aef5603f4612672a25e6c29a85
e3368ba4fe0c595ce333093f491e8ff4
11b94129cdaaa29e460233623aff576f
d48a8dabb97a6ff0a4df108e6680a451
1365bc9737eb4ddd7261121e67e1ad40
6240b85cfa6a34f5258c7e8957a166fe
e04e54c46c06e9d3cb005a4058ceda59
ed2458a7935ab58445a28577f615f49f
2fa2758bf957ecee383ca6c9cd2cb97c
55f201c52057ae928466e56fccf8c0df
bee5b20c1289f8b9d357e66949ee35d4
630c65f0ebd655a5910426ea1772dbcc
8b1f58f6f19861c0ceac65764892ffbf
0468ad27ffecc9b780bbf0455d9bd488
855ff9638c8d44ffa4ad528c9ec31932
bfe27508415915322dbbb267c8ba16d8
77041c300b79d28d59f15228f2d96eb3
056ba81e78b660f4646a4d3af0e6669c
317f81598ab0d1b1c959d0d3d11060ab
eabaac897cbbbfc3a0b72980cd010bd7
3fc278a2e40568b9f083e944f3e64de7
2ff5f72b644b2fe0981c23ab873b46b7
b4773a6da55336a48fcc309b1c2edb59
aa5f13b47fe9c5f0cf9acdd930fb058b
5def466ffc65c1a14260ca2ee236bf4e
46dc103d62f865d539072094cfbd9e25
d4d471068951393ff5955ea3b409e93d
a60046edd8b18c8266e556a207e7e978
2e1df4ad69439c2e0026d2d5ccc13357
9c782edc6c800211567c8e0b75e9aaea
a3feb1f59332b8b69ef9801ba303a65a
72d7953b70d904985713c6fa238a6066
c861e516201d3bb41363af26c1691f8e
c892c4d8bfd9bb5ab751836819a1a7fc
43360d166c311e4ca9f551e15487965f
877dc4d86162b261693cb546d5b8cdd0
a447bf978a211e45f15b6c82dc16f593
0889afa3000ecbfb5ea2b65053adbf0d
159ea3e42214515207faa92151c06dc8
db3eca8efc40a0f5573281723562fe54
6d5c297a357390799bbdb5c994f428f1
ab3c1a69b1087b7debbd17c5fac7e350
d9b2eb3523aea6c9b7023e9628e5f05f
bed440a18c75b7fadafb9f1e81db8bf9
7bd56af4155b25fc88b40a133e9f72a3
8a22fb845782977c8e918194d6e9c51f
c4c174cbf2208bd0dcf77db4715c2c04
8cd25b5a93a059ca162363cac689231f
65b7b139d8c6ec9a7a9d22be418f9f13
0aed72934582fb8e486ddaf1007c7909
12c95ff2eb9c2a3f42bdad33ca053f9a
d627a2f61c1c9df463dd793542622a80
c9a60ab203db71cdc4f88daffac56f97
e5ef899985d192a996bb5b95228ec475
c4f2f5d099b76bfe06a5a5fca5837a1b
90ae7955ebf4f8883abb13b45fb1cfe0
2e1df862938121dd02c539024d3cbe67
c327eca5eec4a8033f7043347be9ce0e
fe6dd8e0383170d83b39986dd3a7eed3
87115ae08d24b7c6e2d931fdb7a98099
f0e175bd451233f7734eaa8886543972
5359ccac7c9a95e09bcdadc8ea3bcff8
432ba6f192a44fe4895c44a5a0a95179
53333dd7b8aa9173f2e329722ed258b4
0ab9902cf3f31c8736be729cf95b034d
e30d0b99be2660d72193c51d45e90a11
0f6e7fba4f8a09c0bdf20e589b5bfa97
25601b4cbce841f97d346b8f2e83cf8d
11494bad6e9eafcc64c29e6fca724b39
c786119f38cd560d395a284eac06b0de
76866e92abebc882c4a9491bc097ccd4
ae1e13806b7d5cb7c802f04f3d2ef56d
c57acd3bb19646f4bb2514ee3b1a23e4
20cf2beff5668e7d88669f5e0c464a92
9f625a676d5b3ff643ace2f6459b34bb
83a5fb915c3aa2bcbf46e3701092fd36
8b837aee90056fc9967229606ac59279
c3d7ddcf3b1cf8cf307aa4f46b4a6409
8b3ce8fdb4ca37c3ab404f208aefd009
34812786d46207b9601ebafe51a4fb22
1411469475284644e562d36f5bf9e37b
437c6bd74313e1e243aea8755c3c5f09
f4d5ef86b72added1a683a736e91cefc
9b6f6989002d6da3c650d7c1173b3708
935f59b4fb362cb021f4e5f21902b559
9414dcbcdae69f62131e44338ece5286
2c7c57934bf9a9d97505affc8a5ee35a
3979cc5e9546d536dfc09781b016ede9
45e2c5f281ef19f4c016090c62fc4bfc
5b0169cd44e2b9cb7a6d89dcef307c62
ed7139acc321459886d1c5a8424b0781
e41a13b36e9e3dbecb7ad56566329377
3eab4bad7b937a17b42b0a7140d6ee8a
1c84b1a44fc0f1aaf2fd3bc9213c6352
1be5614154af000dd8330d09502d551c
a39a2068fbf9d8c63df0d6042f668653
0e38975113db78af5b4c5412b21900b7
85641b0f20f92d655f2bb002eadcba91
04e2db85cd31e2ff51d32a2d39c4420d
57663d071e3e4d5d50d4906c8f9aea6b
f79bbbec9693fb3b7c3ab458c2c17a88
1b304666c132fce0140a3b2f55bc9b3d
2463601fed348edb51a130ef531f72aa
87818acca61a9b6d5f5ed892eb63b141
72a5e318bdf5cc3109c77f638b5c4969
3aa31a2c19d44a6f4449817ab1b585ef
e62c0a74959f3bbf2dab3fa4fa70d70e
58975373ff3ad78b40e38f3edb5ff768
14e2a88f4d40075d8aa5ea01f9cbafb2
1a99046e485988e82a3e0506303ba179
2b09ff96a63e921279df4a9c891bc2b2
2b70de8ecf6726b1646b56221f2d7ae8
7a3a291197618ab638b8ac6453bbc428
2d170287acbbe0dfff2fcb2de6bc5698
d9f100e760956f924af9485748798bd6
e01a7896bbd19f47dcc47aee78c52e06
33dccd2cfb07ed6bfb43b7585808efdc
6972c218980ec93ae2d34b6afc0068d9
895c0e2261f7ea8c8de06e2e2b707183
a7915d6cf119a71d7d90abcb48fdd939
be2cde00aab37af248c6baeaddc025ad
770ddf57fa78d7b3b174c8499f0794cd
4abec524bd30e2b855e4d143bc2285c9
7bc2f056098c3872c994935f194b512e
0900e8d70f9b7485d97fc6165382d22a
ef88bb4e2f15e23f01d743d4e51735c1
6f7ffe99199f146bc50de2681a4b9eed
01cfdeda6a8066ecc8b2c2999dd8cbc7
d567b0f89482b78779712c43a9f9148c
bccdc959ce72043893a30ba15be139a0
a0b297985aab0afab37a5f90ef69f4d2
f8c1efb21d7493313cdd16af0cbd887d
322c97f361c5992108eb007884ab9e3a
d23e381811d072c95f216fd66b653de0
e439268cdd6083f863ce9fb800fa080c
e6d685370b647cc08981aeef0f33418e
e4cd3c39b62663f91757b6332555b8b3
d7cb8750c999da466520c298b02b97c3
56220eb13cf0c398e01c632d4f04f639
c1356c04e8a0557769028af5aec4ed4f
ca1c9c8d94e06a940521d185f07b428e
3f705c04572cb262513d9eafba8e8230
6c4f1493801282a1dee273bacfca5b5e
19d1c19d81d9b9c44a01c0130b110747
14faef327c6b1d378c3893ff68643cd6
2fb960253cda33a14b050bd622d51530
adfe813eb8469eae1d2c7d919aef0568
54a8ec7b7e4803adc7ad839f74f6a812
160b4b48cf071cbac468d19d4c05f6f2
6043e0b6454e29d8c92a17afdfe50f15
